[PAD]
[UNK]
[CLS]
[SEP]
[MASK]
,
.
##s
un
"
ir

##i
ar
##u
##a
ka
par
no
-
##m
arī
uz
kas
kā
##.
to
bet
##ā
##as
:
Latvijas
vai
bija
##o
nav
ne
lai
jau
līdz
gan
pie
tā
gada
##em
##t
pēc
##e
var
!
ko
tas
pa
jo
##ās
tikai
?
būs
##iem
##os
gadā
##is
##ot
##-
laikā
vēl
eiro
valsts
ja
kad
%
tika
tiek
tad
savu
iz
##ies
##ja
##am
Latvijā
kur
vairāk
ļoti
ap
gadu
the
##es
Rīgas
pret
viņa
šo
sa
ie
Ja
viņš
##ām
taču
;
daudz
S
man
pat
darba
Eiropas
tās
A
nekā
es
##ais
tik
būtu
##us
##ie
tam
kurš
Kā
varētu
pār
bez
/
at
##ta
tiks
Par
Valsts
##ju
vien
novada
No
Tas
1
##tu
Lai
visu
pirms
a
of
kuri
'
kurā
trīs
mūsu
##šanas
in
kaut
mēs
2
Un
Tā
būt
kuru
##šanu
##d
viņu
1.
##jot
kopā
Savukārt
mums
Pēc
šī
##ka
s
Ar
tur
šajā
viens
kura
3
tie
tomēr
##ti
vietu
##c
iespējams
jā
##ajiem
##š
darbu
##k
D
Es
pilsētas
tāpēc
##ma
##ē
laiku
aiz
cilvēki
vietā
vienu
gadus
ASV
kuras
plkst
##ed
Bet
pasaules
##lv
tagad
##ts
starp
Krievijas
laika
K
##ku
and
gadiem
ES
Tāpat
cilvēku
10
##šana
##ību
viena
viņi
nu
piemēram
##z
tieši
savā
##jam
Rīgā
labi
20
##n
##ks
SIA
##S
M
Vai
4
e
##jis
bērnu
izglītības
dēļ
kādu
I
savas
B
re
E
##to
2016.
notiks
iespēja
viss
##jām
citu
visi
##ajā
tiem
pašvaldības
cik
dienas
sporta
reizi
##ības
##jā
Pa
šogad
vadītāja
V
Viņš
kāds
##iet
##tā
##y
5
2015.
2.
īpaši
latviešu
Ne
tajā
##jusi
tu
##mu
Liepājas
##šu
Arī
##ko
kultūras
notiek
nevar
##na
##'
##ties
pirmo
Man
C
P
te
iepriekš
##ai
visiem
15
LETA
Latvija
##jiem
vairs
šīs
viņam
auto
##p
ielā
Taču
Ir
dienu
nebija
##ī
savukārt
iespēju
##jas
liecina
##ing
To
daļa
bērniem
Jau
jeb
)
nevis
domes
veselības
G
bijis
sevi
##ne
Uz
##da
mazāk
##l
kuriem
##pa
L
Līdz
šis
šim
jaunu
šobrīd
viņiem
iedzīvotāju
##2
000
vismaz
divas
esot
##ums
12
gadījumā
pasaulē
esmu
varēs
vadītājs
pats
komandas
iespējas
##ēja
Tomēr
Baltijas
mājas
##te
##usi
3.
centra
##h
6
R
esam
##kā
stāsta
skaits
vienmēr
projektu
##j
T
informācija
naudas
visas
norāda
Rīga
##v
##nes
vērā
##A
katru
vietas
cilvēkiem
kāda
The
g
##r
##ība
Pie
kopš
pirmajā
2014.
atrodas
BNS
mākslas
dienā
pakalpojumu
##ni
saka
uzņēmuma
finanšu
Z
##šanai
spēlē
spēles
Jānis
##im
laiks
##g
##umu
sacīja
##li
t
Mēs
Sa
desmit
attīstības
##di
30
##juši
Viņa
mūzikas
Kad
100
grupas
##oties
gados
informācijas
##la
atbalsta
drošības
ūdens
atkal
##1
uzskata
##ra
vieta
darbības
aptuveni
##ga
norādīja
skolas
##at
dzīves
tirgus
##3
šodien
ceļu
##šanā
##ina
Jā
izmantot
##mā
projekta
mani
valdes
informāciju
aizsardzības
U
notika
mācību
##īgi
pērn
ģimenes
##ajām
Ko
7
citiem
19
ari
##va
bērni
jābūt
nodokļu
##uši
4.
centrā
de
O
liela
joprojām
##ki
##ņu
##le
informēja
##de
labāk
maz
16
##sim
##al
18
Ap
sākumā
kam
tai
##D
ministrijas
##no
veikt
it
##B
Ventspils
##re
50
##gu
strādā
viņas
reizes
divi
spēlēs
noteikti
##nieks
policijas
F
cilvēks
kopumā
##K
apmērā
Re
for
pirmā
Ministru
At
komanda
vienkārši
nepieciešams
paredz
atbalstu
11
vēlāk
Saeimas
mājās
prezidents
14
uzņēmumu
naudu
informē
ietvaros
##uma
##b
citi
šeit
Iz
##tas
darīt
##īs
##it
tāpat
visā
dienesta
13
##lo
ielas
gandrīz
##ēs
##nu
sava
##ļu
pašu
2016
sev
##jos
nedēļas
valstu
##jums
##kas
Vēl
##in
pārvaldes
saviem
5.
sabiedrības
bieži
Š
lēmumu
##īgs
Šī
darbs
vidū
nedaudz
tādu
sezonas
##st
8
personas
lielu
daļu
##ēt
zem
jauno
Ie
zemes
nozīmē
valstī
##ēju
ministrs
##ba
attiecību
##nieku
H
aicina
##P
svētku
##ž
paši
jomā
neko
dzīvo
kādā
lietas
sen
nebūs
teica
##en
maijā
šādu
##gā
m
0
##ve
vispār
iet
##ša
strādāt
##jās
saņemt
J
VID
25
##šanās
punktiem
##jai
Valmieras
šā
##4
beigās
tev
mērķis
##īgu
##lu
##er
##iņu
bijusi
17
čempionāta
EUR
ziņots
gaisa
c
gadam
on
citas
otrajā
##ru
budžeta
vēlas
veido
miljoni
kāpēc
Savienības
vienā
kamēr
pārstāvji
##T
turklāt
uzņēmums
sistēmas
##/
pulksten
2017.
##M
cenu
tālāk
galvenais
laukumā
sāka
9
Tāpēc
##tē
savus
Te
valdības
tiesības
AS
novembrī
jauna
p
is
be
novadā
##žu
caur
##L
Tad
skaidro
piedāvā
tām
k
prezidenta
martā
##du
septembrī
Nu
kārtas
jautājumu
tirdzniecības
centrs
programmas
tautas
partijas
##iņš
##ri
by
6.
tāda
Jo
tādēļ
##ēm
problēmas
labu
priekšsēdētājs
Lietuvas
Pasaules
otro
satiksmes
##ļa
##me
izmanto
sāk
Al
pasākumu
krievu
rezultātu
9.
jūs
pēdējā
##ņi
divu
veidā
20.
Šajā
visus
Turklāt
darbību
grupa
plāno
protams
atrast
kļuva
atzina
##5
nodrošināt
piedalīties
komandu
biznesa
darbi
tostarp
Pirms
Latviju
##tos
puses
##ībā
neviens
7.
vīrietis
valstīm
nekad
pati
N
Protams
palīdzību
Kas
##iņa
40
tikt
teātra
www
guva
punktu
##ši
Tu
Piemēram
oktobrī
virs
iegūt
jūnijā
uzvaru
b
12.
dzīvi
8.
##ver
##ur
tiešām
patīk
posmā
valstīs
##I
nepa
vides
sadarbības
dažādu
neiz
##V
11.
##ska
aprīlī
papildu
##vi
rezultātā
jaunā
varbūt
grūti
##nieki
decembrī
##ijas
dabas
kara
plānots
bankas
pārāk
tāds
##ce
janvārī
video
Tagad
augustā
##juma
##C
Latvijai
ceļa
##tes
situāciju
10.
Igaunijas
svarīgi
##āju
ik
##F
##el
##go
nodaļas
##do
tirgū
sezonā
iedzīvotāji
jūlijā
tos
Daugavpils
##7
ēkas
Šogad
15.
d
Mar
as
lietu
pavisam
##ro
diena
##ļ
miljonus
pirmais
čempionātā
diviem
spēku
vairākas
##00
kādas
piedalījās
##ņa
##šanos
likuma
liels
teritorijā
##āji
paziņoja
visa
##zi
produktu
Vācijas
beigām
ministrija
atzīst
##īgo
priekšsēdētāja
varēja
grupā
Šo
pāris
De
##w
nesa
ārpus
##jumu
atbilstoši
arvien
pilsētā
##lē
that
##G
##īga
TV
jautājums
divus
uzsvēra
pirmās
policija
##āja
uzmanību
veic
teikt
februārī
liek
##mo
šāda
pašvaldību
Ga
miljonu
vajag
paredzēts
iedzīvotājiem
kļūst
esi
ziņā
##6
Šis
vasaras
##las
nekas
Šobrīd
saņēma
darbinieku
iestādes
##lā
##les
##nā
turpmāk
Kur
darbinieki
minūtes
nāk
vairāki
pieder
Kultūras
##R
Jelgavas
punktus
Eiropā
##umi
sabiedrisko
noteikumu
Nr
##dā
skaitā
18.
citām
uzsver
tādējādi
pašā
jaunas
In
kausa
pusē
##U
##on
##iju
nedēļā
netiek
līdzi
200
##ajam
nozares
##iz
situācija
grib
jauniešu
13.
sirds
būtiski
lielākā
Latvia
daudzi
ekonomikas
sastāvā
izmaiņas
##usies
zināms
skolu
Tikmēr
pagasta
izcīnīja
valodā
neat
komisijas
dzīvē
##sta
gar
21.
līgas
##ly
Tie
programmu
ļauj
pašlaik
saistībā
apmēram
##ji
cenas
spēkā
darbojas
konkursa
laba
kino
radīt
NATO
interneta
##ovs
##ija
##āt
vecumā
##dev
##ns
nebūtu
viņai
parasti
24
cena
##ci
izmaksas
sistēmu
21
14.
maksas
##ājs
dalībnieki
redzēt
ātri
atpakaļ
vadībā
spēļu
19.
##tī
līgumu
datu
nemaz
šķiet
##ar
valsti
trim
sadarbībā
bojā
##ber
daļas
sievietes
Kar
palīdz
šie
trešo
pāri
jums
Informācij
viegli
kurām
sagatavoja
pilnībā
16.
##f
nodokļa
slimnīcā
##pu
īpašuma
##ču
ma
##et
ra
spēj
neno
laikam
otrā
Mums
tiesību
##ušas
17.
Ro
##zī
vis
pēdējo
daļā
nepieciešama
rada
temperatūra
vecuma
personu
sieviete
dažādas
likumā
Ka
lietot
##ha
l
##8
Tur
##ir
uzreiz
klases
nepie
ielu
##or
kuram
sēdē
##jumi
##ens
turpina
Tajā
nedrīkst
30.
līdzekļu
šiem
nodrošina
diezgan
Foto
22
aug
amata
cilvēka
vajadzētu
jūras
galā
pašvaldība
darbā
gadi
izlases
##il
##lis
pilnīgi
izdarīt
piena
##ul
##x
muzeja
##ter
ieguva
katrs
##dz
saskaņā
##Ā
vēsta
cita
##pe
veidot
vakarā
##ajai
atklāj
pagastā
bijuši
Var
pārstāve
turpinās
atbalstīt
foto
2013.
priekš
##ajos
##be
aktīvi
dod
##nieka
##bi
brīdī
klientu
valodas
projekts
varam
tiesas
##īt
##kt
ietekmē
vidēji
##ušies
reģiona
##ācijas
vairākus
lielā
veida
##gi
mūs
ātrāk
Nav
##sies
Kopumā
automašīnu
aģentūrai
garumā
valdība
with
aģentūru
izmantojot
vidusskolas
tiesa
##za
##an
u
pauda
kārtā
padomes
līmenī
sacensībās
valodu
saņem
Finanšu
labāko
deju
lauku
sestdien
##rā
visai
pieņemt
tūrisma
izveidot
transportlīdzek
preses
aģentūra
balvu
iegādāties
priekšā
W
gadījumos
jautājumiem
Pār
skolā
km
attiecības
paliek
svētdien
pārstāvis
pārtikas
neie
kurās
ceturtdien
ilgi
transporta
##tais
sniegt
sistēma
stundas
dalībnieku
miljoniem
aprūpes
katra
##āk
iela
kārtībā
personām
attīstību
##bu
otrdien
##mane
namā
Šodien
##oti
vietām
23
60
turnīra
##est
kurus
mērķi
nosaka
23.
22.
piektdien
vecāki
26
##č
Tiesa
biedrības
ta
Vidzemes
bērns
festivāla
##gad
kabineta
dati
maksā
##ins
Mūsu
RĪGA
mainīt
runā
norisināsies
##vē
labs
vecākiem
##ēr
Lo
Vi
##nis
##ment
katram
reģionā
Baltic
cilvēkus
sacensības
zālē
##nas
pastāstīja
pagaidām
klāt
īpašumu
dzīvot
uzvarēja
labā
pus
##ers
Ziemassvētku
skaitu
Andris
Latgales
Liepājā
pieredzi
varu
##nī
##nē
##vo
visām
cits
##N
piedalīsies
mačā
skaidrs
tādi
Jūrmalas
Tās
sākt
skaidroja
trešdien
bērna
domāt
vienlaikus
ņemot
domā
Māris
fonda
dziesmu
iestāžu
līmeņa
pagājušajā
sniedz
koncerts
o
kop
vārdu
panta
##tiem
##vil
Vairāk
gads
doties
nauda
pieredze
naktī
##īgā
īsti
nakts
ziemas
periodā
##aug
Po
##ļi
valstij
##lī
Izglītības
stāv
skolēnu
z
pirmdien
Gada
turnīrā
īstenot
nogalē
kuros
grupu
##kārt
konkursā
tikšanās
Viens
##ak
savām
##umiem
##āns
palīdzēt
vārtus
runāt
ziņo
apdrošināšanas
politikas
28
Viņi
##ņ
mēneša
attīstīt
attiecībā
##tra
25.
kļūt
filmas
amatu
procesu
##īti
vietās
raksta
pro
##niece
kon
dziesmas
gaitā
uzņēmumiem
meža
Jēkabpils
mēnesī
tehnoloģiju
Lielbritānijas
##ū
šoreiz
##kar
com
##jušas
Li
70
turpināt
dažādi
##ze
lēmums
vadītāju
izstāde
##ris
spēle
##tās
##jies
lieta
skatuves
tiesā
##ons
papildus
iesniegt
Na
devās
tādas
organizācijas
sasniegt
Ukrainas
An
##ona
dara
an
##tic
biju
Esmu
beidzot
iepriekšējā
kādam
ražošanas
##9
klasē
preču
80
##prāt
zināšanas
citus
##:
centru
māju
tiktu
pietiekami
Visu
##zin
sieviešu
piebilst
me
vienas
panākt
##lik
spēli
automašīnas
pasākuma
gadsimta
speciāliste
##E
pagājušā
##ča
sacensību
nama
nākotnē
pasākums
galvenā
paša
##nd
v
Francijas
filmu
##ova
hokeja
##pie
##darb
otru
##man
vērtības
divām
četras
problēmu
##tur
al
##J
sākot
Mārtiņš
##po
palīdzības
valstis
uzņēmumi
veica
##āciju
31.
darbus
li
droši
nākamā
##ējs
##gar
pamat
##des
29
sadarbību
darbiniekiem
Riga
piedalās
likt
noteikumi
pastāv
prasības
biroja
ēku
##cen
amatā
##met
Krievija
apmeklēt
Veselības
r
soda
##id
##ājiem
sociālās
algas
pieejama
persona
##rs
blakus
bi
nākamajā
sociālo
paredzēta
Le
##var
##tion
Kopš
##O
Bo
nesen
pašiem
vasarā
##par
noteikt
uzvaras
##vā
izdevās
kompānijas
futbola
idejas
lielāku
kvalitātes
atklāja
Pu
koncertu
programma
meklē
##niekiem
##iņas
##ēji
koka
cīņā
##bo
kluba
Vil
aicināti
samazināt
jauns
27.
mana
grāmatu
būvniecības
##inās
viedokli
agrāk
##ad
##vu
##pil
nozarē
29.
##jumiem
26.
ikdienas
process
Jaun
balvas
##kla
ikdienā
tra
##umā
regulāri
robežas
##stu
ha
##ol
##ēšanas
slimnīcas
lielāko
dalībniekiem
Val
##mas
28.
darbiem
Radio
teritorijas
El
Rēzeknes
Kurzemes
pusi
telpas
pils
finansējuma
KNAB
##nam
2012.
##ei
deputāti
komisija
##gal
kopējā
##stāv
Igaunijā
stundu
seko
##mes
četri
mediju
Tieši
dzelzceļa
zinātnes
24.
Se
jāiz
mēnešos
##ved
jūsu
spēlēt
trešajā
##manis
Bar
27
##ēd
meklēt
##min
neesot
jaunās
sabiedrībā
ieviest
Varbūt
##vis
vakar
from
Tikai
##ck
##āli
pakalpojumus
Ra
lo
izvēlēties
akciju
kurai
patlaban
izlase
līmenis
rīta
rezultāti
asociācijas
mazliet
palielināt
##ētu
domāju
ieguldījumu
dzīvnieku
##od
##ināt
kādi
lielāka
drošību
##mē
vajadzībām
vadības
Kāpēc
na
jaunieši
finansējumu
mājaslapā
visvairāk
min
pārbaudes
dienests
virzienā
izdevies
Dinamo
direktors
se
##kop
was
500
līguma
banku
##īšu
saprast
35
pasākumi
##cē
Ogres
mūsdienu
Bez
piebilda
##cis
saistīti
##ca
ziņu
##jumā
Lietuvā
grāmatas
departamenta
Pro
##ņiem
Pērn
gāzes
finansējums
problēma
Vācijā
vērtē
Liepāja
zina
līdzekļiem
cilvēkam
prasībām
kārtību
citā
Ieva
zelta
##H
##enes
##teic
programmā
procesā
atkritumu
Visi
Jāņa
katrā
teju
svētki
##der
##ski
pateikt
##ge
ieņēmumu
lielākais
##ošo
##ža
pārdot
will
iespējām
##ijā
vidi
ārvalstu
šādi
aizvien
rokas
palika
studiju
##vad
##či
saglabāt
ro
##ps
skaita
##res
vidē
##zu
pieaugums
neap
netika
Saskaņā
tikpat
ģimenē
tevi
Vienlaikus
algu
##īja
rīko
##ch
paš
fondu
jāno
citās
##ans
vēsturē
pu
mēnesi
jāpa
Aiz
uzlabot
##ita
dienās
##jiet
##das
##dal
##up
aktivitātes
Turcijas
##rē
##pi
šai
##cer
Kaut
Ilze
apstākļos
internetā
sezonu
jaunie
dažādās
dzīve
janvāra
##gs
līdzekļus
##vērt
komandai
##joties
##ds
uzņemt
esošo
klientiem
Ta
tādā
##rad
rodas
filma
Juris
nedēļu
sākuma
abi
šādā
dzimšanas
zaudēja
pilsētu
atjaunot
##ēl
2018.
##20
atbilst
2011.
nespēj
##kus
Krievijā
š
kvalifikācijas
dot
pašam
šādas
tūkstoši
alkohola
galvenokārt
##je
Viena
atbalsts
direktore
##ošu
cer
veiksmīgi
galveno
treneris
dzimis
basketbola
vienam
Vec
Dr
##ll
##ten
organizē
##tie
sievietēm
apjoms
patvēruma
sasniedza
ģimene
salīdzinot
lieto
##umos
##rī
##āla
sākās
bērnus
pārbaudīt
##ējis
da
gūt
##ākais
posms
bēgļu
##per
##ģi
##ena
ikviens
dolāru
Nacionālā
prom
pašas
##ic
skolēni
##reiz
dome
vienīgais
spēja
līmeni
rīkot
Cik
Krieviju
universitātes
Bērnu
augu
dažādām
aģentūras
bērnam
Pašlaik
Latviešu
pareizi
Bal
Auto
sāksies
ba
varas
dažādiem
likumu
##šķ
##emot
mēdz
Kučinskis
brauc
otra
sk
roku
braukt
krietni
##īšanu
##iešu
Daudz
veids
la
stāsts
veikta
biežāk
##eg
##ana
bar
##uk
90
gatavi
##dī
ārā
Ri
##fe
di
Bi
ziņas
jauniešiem
po
ru
##ard
veidu
300
sodu
Pat
sistēmā
izskatās
nodrošinātu
medicīnas
##ēšanu
ādas
neesmu
investīciju
##pā
tiesu
vēlēšanās
Nacionālās
##hi
īpašu
kļuvis
##mp
##ami
##tro
telpu
##sko
vēstures
lomu
tak
ieņem
veselību
vērtība
##AS
rezultāts
kvalitāti
sarunas
##val
Republikas
radio
lauksaimniecība
piesaistīt
##ijs
Me
##30
pl
kontroles
UN
##vas
Vides
so
piedāvāt
##iņi
amatpersonas
Viss
f
##ušās
maksāt
Ķīnas
bezmaksas
##ošā
Raimonds
rakstu
##ēšana
padomju
pakalpojumiem
Ha
angļu
##ry
cep
##24
banka
##ģ
ūdeni
pasākumus
atstāt
##pē
2010.
šos
septembra
##dē
Ho
Ju
metru
nosaukumu
pēdējos
pieciem
Da
minūtē
brīdi
##kli
##inā
##īna
##kš
sniegs
jaunais
vairāku
Cēsu
zāles
ak
##āmies
Bu
pasažieru
atpūtas
##mer
Starp
##ap
Med
intervijā
speciālisti
##ika
Universitātes
mačos
attiecīgi
gaida
Talsu
jauni
##ven
mēnešu
ceļā
gal
enerģijas
lietus
apgūt
##ītes
skolēniem
pedagogu
utt
##one
##eni
##land
pasākumā
ministra
##ālā
muzejā
##Z
abu
sekundes
uzdevums
vi
uzņēmēju
##jo
teikts
realizēt
puse
n
Jūs
grādiem
pārstāv
has
drīz
jaunus
Polijas
##isko
ies
##klu
stāvokli
##nieci
ietekmi
##tru
sarakstā
##fer
pieci
##āta
##ār
zaudē
Sporta
pasākumiem
nē
nevajag
dokumentu
Sal
##dien
apgalvo
atgādina
##ķer
komandā
pieejami
Valmiera
pacientu
Edgars
##ld
infrastruktūras
proti
vecāku
##īte
situācijā
atradās
lielas
##eks
##vald
teātrī
nereti
##mēr
##amo
punkti
Diemžēl
viņus
iestādēm
Gan
daudziem
ievērojami
##vēr
pavadīt
patiešām
vecais
##co
noticis
ideju
atbild
prieku
##ion
##un
##sti
Ekonomikas
lielo
visticamāk
turēt
lielāks
gatavo
##ke
atklāt
##ējiem
##tri
Inga
##kam
##ini
likums
##dzi
elektroenerģija
##mit
##ls
##Š
##gur
telpā
ēd
said
redzams
##ālo
klubs
formā
maija
rīcībā
vieglāk
veicināt
Siguldas
##ži
##domā
skolotāja
saistīts
četriem
biedrība
##krit
pateicoties
teic
attīstībai
prieks
##lai
jautājumus
##ļiem
pieteikt
vārtu
autors
slimības
spēlēm
vispirms
vērtību
salīdzinājumā
zaudējumu
strauji
are
konferencē
datiem
##ama
##ķe
iepazīties
Su
2009.
līdzekļi
vīriešu
piedāvājumu
degvielas
##0
plānu
##rū
Kristīne
ministre
britu
##gas
labākais
visās
##veik
ņemt
vienīgi
##inu
pārstāvjiem
valoda
piecu
finālā
##dot
jautājumos
##šas
Sestdien
vislabāk
ceļš
mērā
savulaik
labo
grādu
citādi
##vēl
ār
apgrozījums
ietver
pieaug
situācijas
nodokli
Ma
procesa
naftas
galda
saprot
Kaspars
##ent
Mak
pieejams
piecas
projektā
pievieno
sauc
loceklis
divās
##nāk
LV
vārds
tūkstošiem
spēlēja
##sku
vairākiem
daži
gaidīt
Mo
uzlabo
eksporta
##tāju
Bauskas
##īšanas
vienības
nekustamā
nepieciešamo
w
darbība
manu
pētījumu
vienošanās
Kristaps
NE
##uz
##dos
gadījumu
or
45
##ting
īpašnieks
##īgāk
Brīvības
saņems
uzņēmējdarbības
##īsies
lietā
dzied
sanāk
izvērtēt
sajūta
vietnē
##ēna
modes
pirmsskolas
##ķi
nolēma
mūziku
##ation
sportisti
braukšanas
novembra
Lu
Darba
vel
dažādus
##istu
Kārlis
reizē
summa
Vakar
pamatā
lapā
festivāls
strādāja
vēstīt
Kau
##ītis
jūt
pamata
skolotāju
vācu
izpildīt
##tēm
2015
eksperti
akcijas
saukt
skola
##izēt
spēkiem
vārdā
paldies
##vel
mēnešus
Tev
##kon
apkārt
gluži
deputātu
Šīs
uzstādīt
ilgāk
mājām
##berga
Kon
kļūs
izstādes
marta
Za
augstu
Mākslas
Maskavas
Be
pieteikties
dažādos
veikalu
ša
Kuldīgas
spēka
kapitāla
ārstu
bijušas
rakstīt
31
bo
atbildību
prasmes
satur
draugiem
līgums
##fa
Jaunā
sabiedrība
##ībām
cenšas
La
lietām
bur
LTV
šīm
organizāciju
vērts
Iespējams
partiju
jūlija
vadība
##aka
Rietumu
dažas
##liec
##amies
apjomu
maksa
##ud
sta
negrib
mūzika
LU
kompānija
##ācija
šāds
ministru
parādīt
reģionālās
##ūd
##īnu
percent
pienākumu
##jušies
Saeima
##brauc
problēmām
neviena
Tādēļ
uzzināt
starpā
dienām
nākamo
2008.
##teik
abas
saistīta
uzraudzības
kilometru
Mil
##els
Mal
ciet
Pe
iemeslu
piešķir
Sabiedrisko
nākamgad
jūnija
##iks
teritoriju
laukuma
##oša
brīvības
met
rezultātus
##ējās
Sīrijas
jautājumi
krust
minēto
##ip
notikuma
ģimenēm
noteikts
##isma
##itātes
year
tīkla
32
apskatīt
##ņem
maksājumu
vīru
##kais
##eju
##era
vadīt
##lū
iepirkuma
vārda
iesniegumu
SC
pasauli
up
garām
150
prasa
kārtība
vajadzīgs
ikvienam
Paldies
dr
Saeimā
dodas
Dace
lasīt
Balt
##tor
##gul
##āls
##ālu
nonāk
ideja
Austrumu
noteikumiem
stāstīja
trešā
le
Alūksnes
sagatavot
sīk
##dr
##dar
interesanti
telpās
##kiem
līgā
plus
pilsēta
jāveic
##ists
komunikācijas
zaudēt
gatavs
ģimeni
profesionālās
līdzīgi
augsta
mājā
pieaugumu
durvis
Valmierā
krīzes
tīklu
##main
ga
Smiltenes
##iv
skan
dis
pavasarī
spēlētāju
Gar
starptautisko
tuvāk
##strādā
vajadzēja
sniega
apmeklē
##ķī
##ho
##kal
viesi
##ošs
mo
##ceļ
domas
televīzijas
Satiksmes
patiesībā
pārvalde
zemi
divos
##lēm
milj
novērtē
novērtēt
##ajās
vārdiem
trasē
##van
rīcību
##ton
mākslinieku
##cion
##onu
nespēja
izteikt
ledus
have
glābšanas
Tātad
gatava
iepazīt
##eti
Pirmajā
attiecas
plānošanas
per
cent
baudīt
##bri
vārtiem
mēnešiem
līderi
Tukuma
šķ
Tautas
šosezon
##ek
Kal
uzņēmumā
Vienotības
1000
vienīgā
vējš
NO
izstādē
Tra
izglītību
parāda
amerikāņu
apstākļi
cīņas
kopējo
iemesls
darījumu
rokās
pārsvaru
##līdz
nekustamo
karjeras
Riodežaneiro
esat
redzam
reizēm
pieņemts
##gan
##tam
nepieciešami
mamma
latvieši
##āts
So
##iņām
uzzināja
slimību
visos
##jumos
gribas
nepār
cauri
PVN
##vie
##pas
uzņēmējiem
he
##vien
##ākā
summu
ražot
##kur
jaun
aprīļa
darboties
patēriņa
##US
##vār
##ves
##tin
iepriekšējo
noteikumus
augusta
runa
novadu
palīdzēs
Si
Inese
##log
vari
rezultātiem
meitenes
Tiek
##īgas
četru
##tr
lietošanas
noteikumos
Pirmā
čempionāts
75
elektro
Ī
gaļas
interešu
sadarbība
liekas
plāna
reiz
izmaiņām
dalību
##ienu
lē
deva
labas
rīt
riska
Facebook
##spēlē
rāda
izrāde
Māra
redz
mācīties
vadīja
Ru
galvas
atbildes
rudenī
īpaša
##iga
celt
Projekta
ķermeņa
pozīcijā
titulu
lapas
##form
Līga
##iens
not
##iņ
##āna
nopietni
##āra
izveidota
numuru
top
kopvērtējumā
studentu
##kovs
Aleksandrs
##ras
vēstīja
Latvian
Zviedrijas
norādot
##lie
##ēties
velo
nodot
nekādu
Er
iepirkumu
##10
He
skatītāju
ceturksnī
atklāta
piecus
jebkurā
konkurss
lieliski
##cel
##trā
rit
##ējot
diemžēl
##ant
savai
posmu
sākotnēji
##tāja
loma
lv
norisinājās
slikti
##js
Ār
KVV
##mb
Co
prot
##kos
div
pensiju
gl
organizēt
Sta
kravu
interesē
##mal
Mūzikas
kravas
Bija
ārsta
vīrieti
vienību
risinājumu
jaunajā
##ānu
suņu
Zemgales
Tādējādi
##ite
Do
55
##ik
tuvu
sāks
##kst
uzsākt
skatīt
budžetā
veicot
##inot
vēlme
soli
politiku
vil
Itālijas
sabiedrību
Vis
0.
iespējamo
Ol
interese
māc
tālu
##he
Otrā
mazo
daļēji
tri
vīrieši
tehnoloģijas
platībā
Mi
bumbas
izvēle
Or
aktu
izmantošanu
##iski
jāmaksā
##ātu
priekšu
tālruni
partneri
dizaina
Iepriekš
citur
##ig
##vin
##IS
partija
rindās
apakš
uzņēmumam
izrādes
vietējo
##bī
saņēmis
piešķirt
svētkos
pienākumus
It
##klā
Ārlietu
decembra
svarīga
##ināja
vada
konkursu
kandidātu
##W
##eļ
##ide
oktobra
klubu
speciālistu
savam
Pri
prezidentu
##āko
četrus
izstrādāt
##uks
##len
##oni
ceturto
intereses
galvu
Zem
apvieno
nākotnes
Andrejs
noteikta
visbiežāk
pretī
ad
lielākoties
noteikto
zemnieku
krāsu
baznīcas
vadību
##ināšanu
plāns
krievi
pieredzes
34
##ec
Bra
PA
this
pakalpojuma
Pagājušajā
##tājs
nozīme
notikumiem
risku
zāļu
atzīmē
oficiāli
plašu
vidējā
19.00
sabiedrībai
sākas
##ieties
##iņā
vēlreiz
apliecina
uguns
Lauku
sarunu
salīdzinoši
##ev
praktiski
##TI
daudzas
ļaus
##ņā
Sen
sezona
400
jāat
režisors
##isti
brīža
##griez
Mu
deputāts
apmeklētājiem
##ros
faktiski
##sh
##ere
kļuvusi
iespējama
##dom
skar
nosaukums
kādreiz
##th
nevienu
##snieg
pārsvarā
apstiprināt
punktā
##ējam
skaidri
Jelgavā
##ger
savienības
##TA
ņem
kolēģi
Jan
atbalstīja
produktus
ēka
Lī
##fi
atgriezties
Kor
komandām
ekspertu
nāves
rudens
##tāl
##ces
33
jubilejas
##ep
Vienotība
##tām
Ak
iestādēs
fonds
main
##str
mīl
līderis
Du
publisko
otrās
##ist
risinājums
vietnieks
padome
ieguldīt
vielu
alus
stāstu
##zē
PSRS
##ķu
Group
godu
veikti
VEF
cīņa
piedzīvo
##cijas
##iskā
slim
EK
vēsturi
kategorijā
interesi
##kļu
##gre
māja
draugu
##niekam
Ver
##ok
##40
nevajadzētu
65
sevišķi
sabiedriskā
kopīgi
Bērziņš
publiski
##jē
otrais
valdībā
##ēta
netiks
dzi
savās
##kova
aizstāv
##āka
statusu
##īties
36
##dod
Tam
ministriju
Maz
piemiņas
starta
palīdzība
izvēlas
Satversmes
##ējas
million
##bergs
pārsniedz
valdību
gaidāms
pieprasīt
##lon
gribu
mi
pēdējās
ci
##ive
sekot
ietekme
izdevumu
labprāt
draud
Ber
grozījumi
uzturēt
nodrošinot
##šā
##iena
Policija
Šie
Fa
Lielā
pretinieku
dator
izvirzīt
grozījumus
##āne
zonā
ēst
atsevišķi
2020.
šonedēļ
reklāmas
##eņu
Kāda
##ciju
pārdošanas
Stra
vecā
raksturo
##lika
dzīvokļu
uztur
##skai
oriģināl
pašvaldībā
zonas
objektu
##cī
materiālu
īpašumā
tuvākajā
##viet
##liek
attīstībā
Jūrmalā
Ku
bri
nodaļā
##zes
apstiprināja
vairākkārt
##eja
tirgu
pārkāpumu
risināt
posma
vec
nepieciešamību
dzirdēt
notikumu
Baiba
IT
mu
apvienot
ku
padarīt
##mam
baznīcā
ZZS
##āku
##tāji
super
vidusskolā
do
##50
muzejs
##dri
modeli
precīzi
##ieši
##OS
##ēj
koncerta
Tai
Ša
sekas
Knicks
bijušais
sērijas
pašvaldībām
olimpisko
uzņēmēji
kalpo
##dru
otrs
##sons
darbam
aicināja
Ab
Domāju
kredītu
vajadzīga
palikt
ārstniecības
konkrēta
krit
pieņem
nosaukt
##griež
##sts
##MA
spēju
fa
aiziet
iedzīvotājus
atbrīvot
##ikas
Baltkrievijas
##hu
jaunajiem
Patlaban
iesaka
##ētā
rītā
##eta
kl
nopirkt
sajūtu
##ījās
zeme
pilsētās
īpašnieku
Swedbank
##bra
##rin
nekādas
##isku
Rīgu
apvienības
zaļ
veikalā
grāmata
studijas
sākums
sakot
noslēdza
aizmirst
portālu
pabeigt
ceļiem
modern
drīkst
pla
##bol
punkts
pārspēja
##ījis
vērot
starptautiskā
kg
pasta
ministrijā
projektiem
daudzums
Lielbritānijā
##āks
Tele
Piektdien
Lab
poli
jāsa
cīņu
##ron
datus
norises
doma
##ino
Vējonis
krāsas
ārkārtas
aktieris
resursu
Gu
der
konstatēts
novērst
##LA
nevarēja
##ēti
izcēlās
##ste
tēvs
atkarīgs
iznāk
##mis
Artūrs
liel
##niecības
##jušās
Krist
##ker
##jon
norādīts
budžetu
Pirmo
Kāds
deg
nācās
neuz
Kopā
tauta
konferences
Vien
##avas
īsteno
aktīvu
uzstāsies
##jošo
jāpie
veikala
ātrumu
notikušo
nelielu
Kamēr
38
##av
policijā
parakstīt
sald
aizvadīja
mans
Dienas
procentu
##15
##ēnu
##ty
##ene
sevis
VI
dziedātāja
zināt
Sp
Somijas
Daudzi
maza
kra
netālu
pan
trūkst
rajona
satiksme
vīriešiem
saules
sarunā
akadēmijas
reāli
##ējuši
jāie
attieksme
radi
Paula
draugi
##ņo
rīcības
##ej
ziemā
esošā
pavēstīja
toreiz
vēlēšanu
garā
##cent
aktrise
##jusies
pieteikumu
izraisīt
parlamenta
sportistu
pārmaiņas
pamatskolas
Mana
gala
Uzņēmuma
##tus
mikro
apstākļiem
##ējusi
stāvoklī
papildināt
##īgās
pieņēma
produktiem
Daugavpilī
masu
ietekmēt
Mon
attīstība
seši
jūtas
preces
lēmuma
Porziņģis
Esam
fi
piln
reformas
kopējais
ve
##droš
pabalstu
mūsdienās
augstāk
##ure
meitene
pieauga
bār
Anna
prasību
savs
mazu
saņēmusi
bu
Nacionālajā
42
paaudzes
februāra
##zīme
svētkiem
##nc
sola
Sv
va
dzīvību
iestāde
Spānijas
Bankas
Bank
##ine
Sil
gadījumi
##end
Maxima
reģistrēti
Je
veca
minūtēm
vadītāji
parkā
##put
Ska
peļņa
ieradās
pacientiem
ju
ievērot
dziesma
svēt
Dabas
##laid
goda
##eru
sacensībām
nebūt
ģenerāldirektor
iesaistīties
armijas
mēr
tātad
aktieri
bibliotēkas
distancē
nodaļa
vecs
atcelt
Trīs
Ca
con
##nt
##ster
##skā
veikalos
pavad
tuvumā
sociālā
sū
brīvā
rūpīgi
balva
##ājam
pieaudzis
ziedo
izslēgšanas
noslēgt
##vir
tuv
##and
##vī
ziņoja
birojs
##ošanas
saimniecības
jāņem
Svētdien
##pēt
Komisijas
perioda
Ventspilī
##vai
##lido
ANO
su
##mat
lieliska
komitejas
atvērt
noskaidrot
tūkstošus
konkrētu
tīklos
##EL
gāja
veicina
aizdomās
bibliotēkā
izdevumi
bāzes
neatbilst
uzvarām
lietotāju
bal
pauž
skolās
mantas
zin
##kār
koku
pirmie
sastāv
##īta
##ībai
Tik
uzvarēt
##aud
ilgu
balt
svin
Va
acis
pievienot
daļai
ģimenei
pēkšņi
uzdevumu
dažāda
reibumā
sakārtot
vēlmi
kartes
Francijā
##not
67
dabasgāzes
mīt
ticis
##bru
##ūk
Rail
##ejas
##ākie
kājām
Nē
reti
##pro
organizācija
pakalpojumi
vienošanos
Dž
iegūtu
nedz
novēršanas
##lija
pozīciju
##ušo
##dzīvo
vietējā
##šs
līnijas
nodarbojas
cukura
##nk
trešais
maksātnespējas
Ke
nevienam
zemē
##age
iestādē
elektronisko
##tera
Islāma
ienāk
izmaksu
##nos
Uldis
gaismas
Mai
Pirmais
biļetes
ārlietu
dosies
##bā
iekārtu
Limbažu
sešas
uzmanība
iedvesmo
tehnisko
Mel
##veic
Cilvēki
##bild
aktivitātēm
?!
fotogrāfijas
politisko
bažas
Liel
##art
satura
Ik
##ējo
paveikt
##rādī
izcelsmes
projekti
traumas
reģionos
aktīva
Toms
piedzīvoja
speciāli
2007.
iekārtas
##ola
meklētāju
##ģis
ēdienu
Vēlāk
festivālā
##RI
autori
mobilo
atkārtoti
##ietis
esošās
termiņš
##ier
zinu
##raid
##vers
##ējām
##if
rūpniecības
vērtēt
ienākumu
lab
kvalitāte
du
aizvadītajā
rīcība
karavīru
which
klajā
čempionu
bumbu
nekavējoties
īpašniekiem
##dām
Saldus
izņemot
tajos
##šos
grupās
iegūst
##ņš
pilnu
cel
pasaule
atklāšanas
robežu
##ora
klašu
Ser
##5.
ierakstu
Roberts
tādiem
Madonas
paliks
produkti
patiesi
##oloģijas
sociālajos
radās
biedru
ceļi
mācības
##ity
##nāc
##tūr
##og
ieņēma
vārdi
##ītu
labākā
vārdus
instrumentu
virzīt
palīdzēja
Per
koncertā
piemērot
##cu
##cien
veltīta
##ub
Bri
stipri
gatavot
uzskatu
periodu
Latgalē
turpināja
##umus
Kam
tipa
apvienība
neatkarīgi
namu
termiņu
acīm
vad
pārvaldē
##ēns
tilta
lieli
guvis
paredzēti
##pir
politika
apjoma
##dienas
Baltijā
dēls
##zināt
##ūt
vār
personai
grādi
eks
karti
domu
Jums
veco
metienu
vienreiz
##mir
krā
māj
dienestā
##TU
mača
##nova
īpašnieki
##ovu
pierādīt
diennaktī
dārza
formas
48
tic
37
mūža
43
telefonu
parka
dzērienu
NBA
izcīnīt
tiksies
##ošās
piedāvājums
Lielākā
iniciatīvu
Gulbenes
putnu
##cija
ļāva
##bas
speciālists
##dra
Di
metodi
ražo
##ate
cieta
sejas
saturu
nāca
mežu
ved
atklās
##ele
ekonomisko
##pul
zaudējumus
Pret
Pl
##kor
uzvarētāju
uzbrucējs
##kr
sievieti
starptautiskajā
ēkā
zied
maču
laikos
neizdevās
##tēt
aizsardzību
Tramps
zivju
##bē
manā
##IE
dažiem
federācijas
new
apģērbu
##kom
##6.
##itu
##iskās
II
iekšā
ver
Č
Jelgava
##pastu
komerc
premjera
jādara
citos
Mež
##maksā
brīv
č
vīrs
diev
biez
##šķir
statistikas
##VA
nepatīk
rīkoties
tīkls
##ulis
izstādi
diskusijas
nozīmes
nekāda
##pils
malā
sakaru
##dzīv
##ējais
izmeklēšanas
noslēgumā
##iku
darb
##dus
kre
spējas
##ēts
atbilstošu
pilna
sods
SEB
Ā
Galvenais
paplašināt
neaiz
attieksmi
pieejamas
Viņu
Zane
tiesībām
smagi
Laura
##KA
##laik
##zd
##jū
audzē
##TS
##rod
Aizsardzības
viesu
##kie
##dens
cīnīties
pieļauj
pietiek
noslēguma
##ījuši
##skis
solis
Nor
parādās
##DA
daudzdzīvokļu
tautu
##ķēr
##ektor
For
savos
##aļ
dz
##IL
filmā
mar
tīklā
fakts
post
Lū
Šoreiz
septembrim
apmērs
slēgt
euro
Konkursa
##kol
Gri
spēki
veidojas
dejas
sliktāk
piekto
komp
##RA
taa
portāls
Ben
pīkst
skatīties
##tis
piešķirta
##den
partneriem
spēlētāji
##eņ
rokām
sešiem
dārzā
ēnu
##mon
##pur
žēl
politiķi
svarīgs
daudzus
uztic
44
amatpersonu
Ča
nosūtīt
##meklē
##inām
zinām
lat
panākumiem
pal
##dur
##veid
mūziķi
atnāk
visam
##enu
##runā
kājas
traucē
2006.
pozitīvi
##amā
notikusi
Aija
##tiku
Dan
##izāciju
##kās
Fi
##dzin
produkcijas
##4.
cm
##ence
neliels
Pasākuma
sēdes
decembrim
euros
Gal
pārliecināts
asins
##br
##uli
plaši
##ējā
##pri
##vent
mākslinieks
airBaltic
vienība
Uzņēmums
##avā
jauniem
##laiž
neliela
##bar
##rot
Go
nevaru
tēmu
augstākās
priekšlikumu
##ākās
audzēt
māte
pašvaldībai
tradīcijas
ni
braucienā
solī
vietniece
administratīvā
pienākums
sniegumu
portālā
izdevumus
18.00
summas
Lithuania
domē
atzīt
lūdz
izplatīt
##zā
##fon
jomas
izskatīt
##ram
jaunatnes
ekonomiskās
taisn
atsevišķu
apstākļus
##klāj
izmantoja
ražotāju
mākslinieki
ielai
##bert
mediji
##bēr
cieš
Pēteris
pakāpeniski
PAR
##iņiem
##jamo
savākt
Ē
gul
Lietuva
ārzemju
pamest
skaisti
LMT
viedokļa
samazinājās
##maņa
Har
Kan
Gre
sti
uzskatīt
##pt
Bur
automašīna
pusēm
##ikā
prasīt
##ciet
tradīciju
amatam
kļūdas
trans
##ārs
Am
vairākās
##ij
Vel
veidos
noteiktu
gribētu
##īts
##pēd
Mas
novads
migrācijas
paziņo
##pes
augustam
būvēt
mil
Otrajā
dienestu
pārējie
balss
##šo
stundām
izaugsmi
olimpiskajās
Audi
treneri
##īgais
atbildēja
svara
##dīt
peļņu
ho
##ner
Visas
##zas
##jeva
izdot
vide
##umam
co
h
##lūz
##nām
zo
kontrolēt
nomas
##ījām
pieeja
papīra
nozīmīgu
medaļu
##ada
kontakt
autobusu
autore
sportistiem
paziņojumā
alga
##ķis
atmiņā
sal
galvaspilsētā
apkalpošanas
pašai
##ee
mežā
atalgojuma
vidusskola
bio
39
piekāpās
##ants
##ov
63
samaksāt
prātā
tikko
##līd
nodarbības
nekur
teātri
uztura
labdarības
kustību
mācās
piedzīvot
##ance
##fr
Šeit
##ors
atgūt
##dams
##GA
latvietis
SA
konsultācijas
investīcijas
##ete
##ice
emocijas
si
konkrētā
darbos
nākotni
##ista
dokumentus
formu
aktīvāk
zīmola
tēma
Aug
##ņus
ārsts
pavasara
dāvanu
ienākuma
nakti
konkurencē
atrašanās
sērijā
rast
meita
pasākumos
domām
ārkārtīgi
mal
##lām
##sauc
2004.
franču
##pār
noskaidro
##antu
Polijā
balso
veidošanā
mātes
sak
piemērots
##jevs
mīlestību
64
garš
pensijas
pic
kvadrātmetru
vīrieša
sāp
asociācija
skaista
vecākā
pieredzē
Londonas
risks
pašreizējā
iekš
karjeru
##zar
##rp
Vācija
Kurzemē
nost
rakstura
Jūsu
##īšana
īstenošanai
Rad
pi
izlasi
studenti
Sport
put
vēja
kontroli
##del
saistītas
uzvar
otras
AT
kustības
dzīvokļa
atbildības
Trampa
laukos
mainās
iniciatīvas
izvēli
Katru
stacijas
vielas
sieva
1,5
zīmē
sekoja
personāla
##ling
slimnīca
Šā
##kul
Daugavas
daudzumu
nezinu
Drošības
Baltica
būtisku
lapu
company
Nacionālo
ārsti
sešu
atbildība
##peln
##īju
Jaunais
starptautiskās
sadzīves
mērķiem
kādēļ
normas
mazumtirdzniec
dārz
Aivars
pārējiem
Amerikas
audzēkņi
vāc
stikla
##gen
atšķiras
fiksēt
mārketinga
ārzemēs
gājēju
VUGD
iekļaut
##zem
darbībā
Mani
līdzās
Rai
IR
simt
Valdis
sāku
ostas
nodrošinās
atzīmēja
Pašvaldības
##mar
Ve
prognozē
##īns
Sīrijā
nozīmi
panāca
kla
atrod
##tal
tehnikas
Kalniņa
mantojuma
Ad
Būs
Biļetes
46
##šķi
skatītājiem
posmos
Cit
Viņam
attiecīgo
augstākā
##tek
##ētas
49
power
atzīts
nepieciešamas
visur
##maksa
##bil
bijām
austrumu
veidojot
##dija
Tim
ietilpst
LNT
val
Gra
mīnus
elektrības
pirmoreiz
##gai
teiktā
nams
koncertzālē
pamats
abiem
Šāda
raksti
zīmes
institūta
medicīniskās
medaļas
ieteicams
Ceturtdien
Up
Starptautiskā
turnīru
47
brīva
Zelta
kontā
##pl
dzird
250
veiks
atrisināt
go
gara
##VI
latviešiem
##še
##gū
vakara
vēlēšanām
bl
kaujas
koalīcijas
pirkt
##āru
##dž
lokā
OECD
pamazām
tūlīt
tūristu
katras
acu
pludmales
mašīnas
##bs
patika
dabā
51
modelis
LG
aplūkot
Tieslietu
kārtējo
##AM
ieņēmumi
institūciju
uzvara
drīzāk
nevarēs
maksimāli
izslēgt
apsaimniekošana
gadījumiem
privāt
trenera
pildīt
atbildi
Abi
##lin
ri
speciālistiem
2000
tonnu
##isms
##āni
##KS
##isks
vidus
parādu
Lūk
jumta
apkarošanas
viedoklis
##fik
direktora
izstrādā
augstāko
profesionālo
operācijas
logu
Kol
##ule
eksperts
klienti
##daļ
noziegumu
Trešdien
sekretārs
Zemes
##ujorkas
Grand
lētāk
Bre
tikās
##nija
lidmašīnas
##tika
termiņa
gūst
atlases
##žā
##14
pilnā
informēt
ātruma
ī
##jama
atvēlēt
nodrošināšanai
##oši
imigrantu
lidostā
neesam
izaugsmes
darbinieks
gr
Rēzeknē
##īgie
kultūru
bruņoto
##jer
funkcijas
start
mēģina
Manuprāt
apmēru
vecumam
##enē
ilgtermiņa
tekstu
##ava
##12
aizsargāt
600
samazinās
##IEM
izmaksā
##trī
koris
##ež
žurnālistiem
Estonia
atceras
Pagaidām
izrādi
med
grupām
##nēm
##tājiem
##īb
notikumi
nezinām
aptaujā
Ceļu
vidējo
diž
rad
kritums
nogādāts
normāli
##zina
enerģiju
balsot
tīr
##ket
skatu
##ķa
vietējie
atjaunošanas
Rakst
x
Van
AR
##18
##har
ilgstoši
##ācijā
piespiedu
sek
tarifu
krastā
piešķiršanu
pe
##jumus
Dobeles
lā
Ivars
četrām
ievietot
policisti
Tri
padara
Lielais
atļauju
##run
##oja
Vo
Gor
skaistu
nākas
noteiktajā
gadījums
##spied
labākie
2005.
Art
##elis
radot
##sma
##īšanās
lika
##iete
##ējie
##simies
salā
brīvi
sasniedz
šādiem
stāvoklis
pēdējais
attālumā
Balvu
pieprasījums
lielās
Biļešu
samazinājies
Las
also
laikiem
Stradiņa
Elīna
labākās
apmeklētāju
teātris
Vēr
00
muzeju
##ļos
manas
Lattelecom
lomā
##kra
Grozījumi
Džo
##kums
Pats
ceturtā
sevī
paziņojis
Valkas
##bus
##ojas
##vēt
nezina
sievietei
sadaļā
studentiem
##19
Viņas
valdībai
##ktu
kopīga
turpināsies
##vārd
nopelnīt
metodes
pozīcijas
Otrdien
##ļus
pre
funkciju
##slēdz
IKP
izmaksāt
saglabā
##tik
abām
Labi
rakstīja
galu
##han
bronzas
Ukrainā
kompāniju
kalnu
but
10.00
Sāk
Lin
Bērziņa
Air
nacionālās
Liene
##ori
##īša
##āj
##ala
veidoja
gaisā
uzlikt
Komisija
maršrutu
piemēru
maksu
Video
nenozīmē
dzīvoklī
##cin
ziedu
miera
##akt
plaša
Kanādas
ugunsdzēsības
##ters
kontekstā
pērnā
sudraba
efektīvāk
##nga
ievēro
bank
pilī
we
Padomju
##ida
salas
izlasē
##16
##dze
sagaidīt
grūtāk
izvairīties
Pi
##ģērb
reize
tālr
Rio
pārliecinoši
Ināra
jautājumā
pārvieto
Reizniece
Maija
pārkāpumiem
jūlijam
##anti
##nce
mākslinieka
ministrijai
Nov
##pus
izmantoti
vienalga
ieguvis
##jošu
##EN
Lielajā
metrus
ser
##kai
jāap
85
maijam
startēja
jādomā
reģionu
Kara
iepriekšējās
Aleksandra
##vid
vaļā
būv
jāuz
iekļauti
VAS
reģistrācijas
ieviešanu
spēks
kodol
Gunta
FKTK
##žo
rekordu
māksliniece
finansēt
samērā
zāle
Dže
EP
atbildēt
ēdināšanas
Savienībā
52
izveido
notikt
vēr
ezera
##lt
##ņos
anti
izrādījās
atklāts
smagu
##oz
##tre
##RS
kavē
Proti
materiāli
##riem
teritorija
##edz
##īsim
kolēģiem
glābēji
##etes
vajadzības
lau
ikvienu
profesionāli
vir
##bor
starptautiska
slimnīcu
sācis
Pēdējā
##kām
divdesmit
vērtēja
##lam
##ņģ
veidota
##ošanās
iekļauta
##ģe
stiprināt
viesiem
biznesu
been
institūcijas
Papildus
faktu
smalk
sasniedzot
##rit
##af
fil
izmantota
##nāt
##tan
##sk
ieskaitot
uzrunā
##vērs
atstāj
tap
##IN
festivālu
Kri
##lej
šajos
##če
manuprāt
kriminālprocess
piespēles
jūnijam
sakarā
Plkst
ļaudis
##11
spēlētājs
Kalniņš
International
brīdim
nodoklis
53
##ēšanās
vienota
apdraud
plānā
pilsoņu
##ning
##ķ
Vispirms
sāls
divreiz
##ndu
saus
Linda
Latvenergo
trases
klātienē
nevēlas
skatāma
stacijā
risinājumus
uzsāka
##ķē
neatkarības
##ple
ierakstīt
##zer
savienība
rotā
jebkuru
ģimnāzijas
Ieeja
##dro
##prat
more
##teri
braucienu
1991.
apkopo
izbaudīt
rakst
atkarībā
Min
demonstrē
54
pievērst
daudzu
cietuši
atgriezās
Ti
mierīgi
##krā
##til
noteiktā
sienas
##oli
##ole
tava
pašmāju
##rup
##13
īpašs
ērti
mīlestība
##dina
veselībai
gatavojas
autoru
Eg
##Ozola
avots
būtiska
jaunāko
Centrālās
iesniedz
atļauties
priekšnieks
drošu
##ted
martam
##pras
izdosies
ziņojumu
sekretāre
piešķirts
redakcijā
citam
##pat
kārt
sabiedriskās
finansēšanas
st
##ušu
ierobežot
apturēt
blog
##Ī
dalībvalstu
fe
sievu
notikušajā
slikta
tendence
politiskā
aicinām
Super
notikums
neredz
olas
trūkums
Jāņu
Iveta
Ši
operas
##kāp
##ez
svētkus
līdzīgu
atvērta
En
velosipēdu
tradicionāli
##trūk
likumprojektu
Agnese
sešus
pilnveidot
Ei
Ag
dar
attiecībām
##ovska
##eņi
vecumu
pagarināt
oktobrim
neskatoties
Preses
##25
nacionālo
paust
##eri
apmeklētāji
##ex
##augu
##mil
realizē
Kir
Šveices
vienai
##žas
projektus
nodrošināta
atbalstam
glāb
izpildi
##uka
pirmajos
turpmāko
studē
##gn
pusfinālā
kārtības
am
izmantošanas
septiņas
apmeklēja
tautsaimniecība
VP
Guntis
vilk
Katrs
fl
melo
sāpes
##ight
palicis
kārta
vest
pārstāvēt
##bal
darbiniekus
##cept
ministri
svinēt
pārbaudi
klu
galam
augstas
kredīt
pārkāpuma
apspriest
Runājot
vairākām
gaidāma
organizācijām
##mani
lielākajiem
Aizvadītajā
konstatēja
deputātiem
Briselē
Vol
rallija
Londonā
Ge
aprīlim
turpat
##etu
##RO
mūžu
kases
obligāti
Kop
BMW
##fekt
Bel
nokļūt
nacionālā
##sion
Oskars
stā
minūšu
##riet
galvenajiem
##ākajiem
robežās
praksē
nonāca
pētījuma
sagaida
ekonomiku
41
##ovskis
šosejas
New
albumu
iegādei
rādītājs
##lēg
state
laukumu
Meža
Pateicoties
videi
kontrolē
##int
##ng
Vidzemē
izklaides
##ila
individuāli
uztver
##AN
veiksmīga
izrādē
ceļo
kvalitatīvu
Dz
vadītā
Sabiedrība
##tiņa
Mis
vīrietim
dienai
skolotāji
mašīnu
Lielbritānija
bas
klubā
nozaru
stāstīt
##liku
##ītēm
slēgta
##for
septiņi
##iešiem
##ņas
izveidoja
dalībnieks
##gram
pieminekļa
augstskolas
##lava
plānota
sarakstu
izglītība
katrai
57
izmēģināt
##don
varat
##ovičs
Pirmdien
slimība
120
Olimpiskā
veiktas
zināma
pētījums
meln
klāj
apliecināja
zaudējumi
sodīt
veidiem
stila
Sī
tuvāko
##bul
sit
iekļauts
turnīrs
režisora
brauciena
Anglijas
##vec
cir
elektroniski
spēlētājiem
gana
##ājām
izvietot
pras
pieņemšanas
56
pieminēt
##dže
Con
aktuāla
tērpu
66
plašāk
darbojās
jubileju
civil
Savā
CSDD
##vāk
līdere
personīgi
pamatojoties
šodienas
##enko
karjerā
atklāšana
Savu
saņēmuši
##com
vēstuli
stūres
Sandra
12.00
Rimi
spēkus
tajās
##und
sp
ūdenī
17.00
##kins
jomās
sākusi
reformu
Bor
metāla
##gais
uzņēmējs
veicinātu
##raks
albuma
savieno
daudzviet
nevaram
saistības
Ni
kampaņas
##skata
St
malas
konsultāciju
izgatavot
pakaļ
izdodas
kādiem
reģistrē
##kumu
Lat
Zviedrijā
##isa
Raimonda
pagatavot
800
vidējais
pozitīvu
pārējo
##tiek
velti
Jūras
jāpār
##šot
Norvēģijas
Raiņa
Maskavā
##park
skat
##tiņu
sēde
700
Vir
sektora
janvāri
##jami
klasi
apgrozījumu
mēra
organizatori
meitas
grozījumiem
Valdība
Vin
brīvdienās
##dzis
##vēst
ražošanu
were
sektorā
Pre
Interesanti
##izācijas
diennakts
##kšu
spo
##45
likmi
sirdi
##nās
maiņu
stāsti
##,0
Em
vadīs
##60
Red
paņemt
būvdarbu
cerības
piedāvāja
mēroga
Jauno
izrādās
mieru
dabūt
tiešā
tehniku
iesaistīt
spētu
pul
novēl
godīgi
fon
investoru
saņemšanas
##ring
##liet
tūkstošu
dalībniekus
slēdz
strādājot
pienāk
Cēsīs
atbilstību
##lic
vērsties
pamatu
Aigars
##lim
garšas
krāp
##ER
nedēļa
##mans
##ūc
slid
aizdomas
##kot
##nic
Itālijā
notikušā
spēs
##izē
balsu
tādus
dažu
out
all
seguma
konference
##bij
apstiprina
Citadele
Jur
Star
biedri
ielikt
Dailes
##ējumu
autoceļu
Her
Labāk
##ukt
policijai
##zo
##ura
reģistrēta
treniņu
vīri
Grieķijas
lēmumus
##joša
##iba
Top
##nder
telpa
labāku
##MI
##ther
##nijas
##pos
##kina
brīdis
jūrā
nāksies
piemīt
Rihards
ugunsdzēsēji
tikusi
vietējiem
Mei
im
lūgt
džeza
aizsarg
zobu
novērot
iekšlietu
graudu
paaugstināt
ziedot
suns
Iekšliet
AP
##rd
##rn
raidījums
Francija
augstāka
izvēles
astoņas
biedrs
galvenās
ē
durvīm
piemērota
Īpaši
##tajā
lielākajā
Dar
iekšējo
Mans
īstenošanas
paredzētas
paziņojumu
Jauniešu
ziņojumā
uzbrukumu
pārējās
ierīces
uzdot
##kle
prakse
optim
pirmajiem
mirkli
labākajiem
izpild
krāsa
Āboltiņa
##evskis
dzelten
##way
dokumenti
pērk
dalībvalstīm
##17
moto
ilga
Anton
pārliecību
##ēni
matu
acīs
pieaugušo
nemaksā
vē
gadsimtā
their
paaugstināšan
iekļūt
priekšnieka
mazāks
raidījumā
norādīt
Biznesa
lietošanu
Saules
##lab
atbrīvo
arhitektūras
##imenes
Reinis
radošo
##7.
##sī
##ieni
procedūras
##ators
Labklājības
##šiem
##ļļ
bijušo
##eli
Aģentūra
ekonomiski
95
##jošā
grāmatā
kora
Parasti
##ešu
noturēt
čempioni
Jāni
sla
kundze
mē
apstākļu
EU
lasījumā
Tika
ieguvusi
2000.
iespaidu
tikšanos
pieejamību
##slim
Marta
strīd
pel
avārijas
ranga
el
dzīvības
vienkārša
zīmolu
74
##igi
rūp
Mir
nodokļus
van
grūtības
lūgumu
##of
piemērs
nacionāl
rezerves
prakses
##usa
##ft
72
Vī
statusa
nosacījumiem
##mobil
aizliegt
##ājas
ļaut
sportists
iespējami
dabu
glabā
Tirdzniecības
izstāžu
dēvēt
Ros
atbildīga
liec
būvē
politikā
Ul
Madara
slēp
##ļo
##pres
##vīt
ex
##21
dzimusi
atbilde
atteikties
Fe
cien
apdzīvot
mazā
lielākas
folkloras
straujāk
garu
pri
##fo
pievērs
##lle
attiecīgajā
sēž
##ojot
žurnāla
tolaik
god
BBC
Padomes
novietot
nepieciešamās
šķērso
kro
fiziska
##tori
mērķa
##velk
smaga
viegla
Informācija
rezultāta
##ināšanas
##udz
apkārtnē
##bin
##būvē
dzīvojam
##.2.
Mat
58
LBL
pārsteigt
palielinās
iesniegto
##ibu
Nik
kontrole
jebkura
jāstrādā
otram
likmes
saule
##ēšanai
zināšanu
tulko
Dievs
rēķina
sapratu
izpratne
##usī
panākumu
centās
piemēro
##āl
Real
pretendentu
aptaujas
##oņu
##kajiem
pārsteidz
##pārkāp
iekārto
##ālās
aizvadīs
Twitter
##ding
KA
kor
##ājus
Diena
##dzer
priekšlikumus
lap
dzīvoja
tēva
##āties
##kri
objekta
brīnum
##lb
trūkumu
atspoguļo
Turcija
cil
balst
kādus
olimpiskajā
sankcijas
dibināta
##ets
##atori
plan
līdzeklis
its
radīja
siera
##spēju
modeļa
FM
##zag
agr
Ludzas
comments
Ķīnā
Pārtikas
pod
We
uzņem
skolām
valde
trešās
##raž
##brī
attiecībās
##ieri
restorānu
tehniskā
gaismu
Lieldien
Atbilstoši
##onis
##shi
lidostas
iznīcināt
atalgojumu
taisnība
pretēji
summā
karavīri
##eņa
##lūk
uzvarētāja
##bur
milzīga
atsauc
Google
tēlu
attēlu
čempions
muguras
Pilsētas
her
FK
##aks
satik
##īni
Mār
##BA
skāb
##niem
atmiņas
normu
koncerti
Kurš
lasiet
novirzīt
Plānots
Bērni
muižas
Hi
čempione
patērētāju
Vald
##mel
īpatsvars
nozīmīga
izveidots
uzturēšanas
European
komentē
Sākumā
ierindojās
##tne
##sone
rangā
##lok
laukā
##star
periods
patīkami
16.00
##uri
gra
žūrija
##urs
vēža
##LE
ražotāja
nekādi
Hyper
Pētersone
veikšanai
##deg
vērtībā
netraucē
piegādāt
ekonomika
apmaksāt
robežām
draugs
##spried
Basketbola
jārēķinās
skolotājiem
##stipr
Jūrmala
pārstāvētā
tirgos
Dzintars
izbraukumā
dzīvokli
##ES
galvā
savi
ilgs
palīdzētu
##ali
tendences
saistību
62
##ļe
Būv
telefona
Beļģijas
Tāda
reģistrēts
parakstu
rok
šķita
administratīvo
##zemes
Imanta
valda
Ari
atzīta
dažus
profesiju
Jāpiebilst
interesantu
mas
manis
aizņem
##Comments
norisinās
cenām
##ago
##DZ
##op
labumu
čempionātu
Zemkopības
kapu
Br
##gli
iziet
sūtīt
##īm
Katram
vecu
##kū
##top
##iskais
God
radošās
likvidēt
komisijā
apstrādes
palīg
izvērtē
vies
vadītājiem
11.00
spīti
kust
pēcpusdienā
atkarīga
īstenošanu
ražotājiem
guļ
vēsture
Izstāde
mēģināt
##AI
profesors
##že
Nevar
Anita
novērstu
jāsāk
iemesla
pedagogiem
finansē
izsniegt
Katrā
##kurs
##kuma
šajās
##atoru
ab
astoņi
##āki
bra
##īkst
nepieciešamības
vajadzīgi
Kino
sagādā
režīmu
sirsnīg
latviski
##por
upes
##ūra
nesaprot
Cer
atrodama
gājuši
pieejamā
dažkārt
BK
šovasar
īpašā
viesos
šķir
ceturtajā
Sevastova
piekrastē
starptautiski
garantēt
pī
piekrīt
##port
produkts
krīze
traumām
San
interesantāk
dalīt
lietotājiem
startē
##ēšanos
##tiski
nevarētu
skol
Parīzē
##NS
##red
Parlamenta
2003.
sekundēm
sieru
paredzēt
##ian
pārtraukuma
##tīs
galvenie
saimniecībā
apgrozījuma
stāvā
interesēm
ceļojumu
likme
izaugsme
##ziņa
pēr
##tain
izskanē
##ciņa
Salaspils
pārstāvju
##tons
audzēkņu
priekšsēdētāju
raud
atliek
tavu
##ach
kustība
pazīst
esošie
##ici
##ošanu
nosakot
cūku
##90
rajonā
Vid
prezidentam
##Ē
fiziski
kuģu
skaņas
apskatāma
atlēkušās
UZ
pievienotās
can
pili
pašreizējo
##als
##dzied
Preiļu
kart
pārtraukt
pavadīja
vied
piegādes
meta
referenduma
##EM
##LI
solo
##.3.
krist
izdev
prognozēt
iedomā
dzīvojamās
air
Sol
##tiec
statuss
mir
pasažieri
Pol
miljardi
zaudējumiem
##tel
sadalīt
tūkst
litru
minimālo
garšu
padomi
nometnē
piepildīt
paskat
Vār
pagaidu
piedāvās
baznīca
kārtu
vārti
##dža
akcīzes
rindas
izpratni
Sav
Sergejs
prokuratūra
devēju
Grib
medijiem
karte
aizbrauc
##80
than
izmantojam
energoefektiv
izraisa
vērst
vietējās
ansamblis
režīma
Fo
##ismu
ceru
Lauksaimniecība
900
Rū
runas
baro
vēlējās
##ert
##sniedz
gard
##35
##iste
amatpersona
##ciņu
Lau
##jumam
darbībām
Olimpiskajā
spīd
Putins
IZ
tikmēr
Pan
izveidi
automātiski
atklāti
ST
lūdzu
zinātņu
vēlēšanas
je
noslēdzās
bērnības
veselīga
apkalpo
59
bankā
dalībai
nozare
spa
##cil
tautai
noveco
privāto
cerību
īsta
nomainīt
apkures
Ķe
##ela
locekļi
Igaunija
nākt
otrādi
Turcijā
##Č
Piln
augļu
Pētera
strādājis
kopīgu
lūk
runājot
talantu
##ošas
Abas
##mul
traucējumiem
cīnās
minūtēs
110
person
izlikt
ienākumi
klimata
##mai
kāpums
albums
kolektīvs
skaistāk
##pra
situācijās
##ders
pik
mūž
2019.
ziv
izņemt
pieaugušajiem
ieradušies
skolotājs
uzsākta
##dzīvot
izdarīja
period
Brīv
pieeju
saprotam
regulē
sarīko
Rietum
Ēriks
noteica
##pasta
saskaņot
aprūpē
atlīdzību
mērs
olu
īpašības
iemaksas
norādījis
vecāka
##DI
##avu
vēlētos
būtisks
Vies
rekonstrukcijas
lido
priekšlikums
vairākos
apzināt
vārtos
Ed
##dzes
##dzīt
Gaisa
sadarboties
svaru
zvanot
Klintone
tobrīd
##liks
sākta
##lēk
Če
WTA
daudzās
##itāti
smagā
operāciju
sociālajā
##8.
##kan
##RU
vērojama
māksla
saņemts
Neskatoties
punkta
sagatavo
šādus
pārcelt
pieauguma
##īdu
indi
kārtīgi
##oda
##īšanai
nebiju
sanāksmē
šķirnes
##spēj
kafijas
krimināl
first
frakcijas
##men
atņemšanu
vēlamies
aktos
izbūve
augsti
about
izpildes
gaļu
Os
##ell
materiāla
aicināts
sniedza
izskaņā
līdzīga
novembrim
orķestri
##alitāte
mini
kārtējā
##KO
piedāvāta
augstskolā
Pirmkārt
71
ādu
Il
akmens
Zin
##ff
Komunikācijas
palielinājās
atgādināja
izšķir
15.00
skaņu
77
##punk
Diāna
Mor
##klāt
procentiem
Dana
nodarīt
##lēt
notiekošo
Sieviete
mazāka
Bieži
stāvokļa
Visa
mazināt
Svēt
Bār
premjers
augstā
##rb
pagastu
Eiropu
brūn
br
##auto
laimi
radošā
##ble
mācīt
nominācijā
##nci
iemeta
ļaujot
samaksas
vaina
versija
##lk
Attīstības
Nīderlandes
##iti
vieno
vakaru
tro
piemin
##ren
izteica
kultūra
pirm
galvaspilsētas
normatīvo
locekļu
##dēt
Vasaras
spēcīga
Euro
##tar
##raksta
neesi
uzrakstīt
vardarbības
aizdevumu
##tajiem
##ture
Kaln
parādījās
##āri
saņemtu
Šāds
rietumu
Pra
sē
budžets
koncertzāles
vadītājam
muzicē
sajūtas
literatūras
laikraksts
##dent
publicē
Starptautiskās
rekord
pilsonis
Ušakovs
deklarēt
you
Doma
ce
##būve
Čehijas
##dzen
Pēter
PVD
##liņa
ražotājs
uzlabotu
##lp
atjauno
##vieta
Aina
zvanu
iedomāties
##son
##oru
##tikas
samazina
pamato
vidu
produkciju
Tor
saņemta
latu
līniju
desmitiem
izstrādes
##ler
amatpersonām
ierobežo
uzskatīts
iegūs
Katra
past
nabadz
izmaksām
panākumus
dzīvniekiem
analīzes
kolekcijas
##UR
raidījumu
##ret
pārdod
##bū
##irts
vēlos
ārvalstīs
sniegto
car
populāra
Gints
dubult
ierobežojumi
pacelt
FOTO
apmācības
laikus
pieprasījumu
virkne
##bals
Normunds
bildes
##vaino
septiņiem
Nasda
kļūda
##king
dota
who
ķe
saimnieks
papild
mediķi
virsū
##lga
##mei
maiņa
Liela
##kat
##īši
ši
startēt
Pauls
##iņos
novados
Dze
loka
dejo
izsaukumu
nopelnīja
Anda
##RE
Sto
fakultātes
Džons
muitas
14.00
peļņas
aptaujāto
darbosies
prezidente
##klas
LDz
##likt
##ālis
mazajiem
Šadurskis
one
forma
tepat
zemāk
##lien
militāro
Viņiem
radoša
janvārim
Jaunajā
rehabilitācijas
pieļaut
jaunām
##rg
##skatot
sekmē
Līgo
KO
pārvaldības
psih
tumš
Laikam
Ziemeļ
rādītāji
##ologs
nozīmīgs
sugas
orķestra
##ūz
atļaujas
##05
simtiem
Pēdējo
Vīrietis
##čs
68
##eļu
produkta
vesela
saruna
kandidāts
režisore
atcerēties
nū
KHL
##stot
variants
pilns
##īgām
kādai
stu
projektam
gaitu
īpašo
meistar
Pils
Ziemas
Sākotnēji
pārvadā
##rv
Toreiz
##rt
biroju
Pasta
vieni
Marija
vasara
cietumā
vienlīdz
mērķus
Artis
##kust
##lūko
diez
kritērijiem
piedāvājot
##ināšana
ātrums
##vām
##IP
Japānas
ped
maizes
sēriju
apjomā
apmācību
darām
milzu
2001.
##vest
melnā
sarkan
barības
##OT
uzmanības
##ienā
Šādu
sastāvs
sam
bizness
##tiņš
nepietiek
žūrijas
komiteja
uzlabošanai
Sak
Jura
##ef
Ostapenko
oficiālā
##nest
##īda
izvieto
##īgiem
##rādījuši
##9.
##NA
augt
respondentu
dzīvojamo
##AT
##IR
##meni
uzsāk
izcelt
atšķirībā
Car
##līti
nestrādā
mākslu
##DE
orient
pagalmā
veselīgu
pieprasījuma
Stu
dārgāk
##nieces
kompleksa
saražot
Lūdzu
##lers
##gl
jāiesniedz
Pamat
negatīvi
##novs
Apple
pārstāvēja
kļuvuši
##lizēt
vairo
vienīgo
##džu
kopējās
##AU
##giem
minēts
Zī
iepriekšējos
kaimiņu
##iko
konstatē
##fin
cerēt
kolektīvu
##sargā
##cijā
korupcijas
profesionāla
Krimas
patiesība
novieto
atklātā
procenti
priekšmetu
##rija
##krīt
Kub
standarta
pasaka
esošajiem
gaiss
personības
Domes
miljardus
klase
palielinājies
pārskata
uzņēmumos
pieveica
76
papildināj
Līdzīgi
san
##došana
laukums
61
##ird
izaicinājums
other
apgūst
ieinteresēt
Jaunie
Kučinska
vēlētāju
Meln
bruņ
meitenēm
##veida
Neviens
vidēja
##dži
kursa
izteicās
Austrālijas
cieņu
partneris
zināmi
beidzās
Dzintaru
teroristu
Pagājušā
##rauj
efektīvi
##nika
sekmīgi
materiāliem
Eks
Lāčplēša
dabū
audit
svarīgu
##gers
op
mod
motor
Gulbis
izpētes
pētniecības
Estonian
##ners
Banka
kv
##jamies
ostā
##stīt
##rm
plāniem
tādām
austrumos
##tisko
datoru
Svētku
vidējās
veiksmīgāk
Av
ķē
sākuši
ter
pamet
Parīzes
##kalna
kungs
aizliegts
skrien
piecām
nedomā
nov
parks
nelegālo
izdomā
lielais
īsi
sportā
##ošais
durvju
sarunās
Obama
##zen
##2016
stāsies
##JA
Festivāla
pārstrādes
medijos
ticam
pamatot
##itāte
dziļāk
parlamentā
specifisk
samaksā
##ezer
mūziķu
materiālus
Romas
##aut
netic
##lec
Ls
lēmumi
numurs
aizsargs
saimniece
cieši
##nīte
mašīna
kilometrus
kri
stāva
##ziņu
Skonto
##oviča
##kajām
##ūr
deputāta
plānoto
startēs
ievad
men
universitātē
##eva
brīžiem
salīdzināt
izmantošana
mazie
iezīmē
Noteikumi
Dieva
##lan
attīstās
jāiet
citādāk
fizisko
atteicās
##vāc
atdot
nozagt
##zīmē
Dub
zināmu
##vju
risinājumi
sastādīt
plašsaziņas
##rk
astoņiem
##KU
##OR
paveikto
Laika
##ošie
izvēlē
##inas
##oto
MK
Zaļo
Āfrikas
saņemti
ārstiem
Skolas
Bir
politiski
##anu
sievas
atlikt
augsts
Priekš
ierasts
kāju
zvaigznes
Ādažu
ziņa
atlaist
pazīstama
##teikusi
sala
braucot
Latv
Ac
piedalījies
PIE
aktivitāte
pasūtīt
pieņemam
Daži
savādāk
pir
trenē
šova
pārsteigumu
dal
variantu
pārsteigums
nelielā
režīmā
izteiks
pārbaude
##ologi
pilsētām
lielisku
##tīm
vienoties
would
##hol
firmas
Port
pieminekļu
reģistrēt
drukāt
##ero
Vāciju
##alizē
##AR
miesas
Vītola
spēlētāja
his
biļešu
ciemos
had
policiju
##eet
##miņa
prāta
dos
mammas
Ilg
Tūrisma
radīta
palikuši
izmeklēšanu
kameras
nez
##ficē
dārzeņu
smadzeņu
čempiona
sasniedzis
pielieto
sesto
roka
starpniecību
##fu
##vara
##ibas
##dara
pārņem
pirmizrāde
Olga
zvaigzne
Santa
ek
līdzšinējā
##ānas
dziesmām
atgriežas
Pirmās
politiķis
Viktors
darbnīcas
lielisks
73
veltīt
##rum
zaļo
Zil
miljons
dēlu
spriest
Apes
likās
interesanta
šķēr
Vilk
politiskās
##tūru
fiziskās
stundā
izglītot
krīt
##īgajā
##bai
projektos
pārmet
cept
Nesen
pozitīva
Pla
orķestris
gūstot
##rei
redzama
jautā
Ex
spe
saimnieki
citviet
zil
dia
13.00
dari
atrada
mit
reakcija
unikāla
dziedāt
Delfi
ļautu
paredzēto
institūcija
##kara
siltum
izdzīvo
##rām
Cel
izstrādājumu
žurnālisti
##prec
Eiropa
Bau
pircēju
sasniegumiem
brīvību
2002.
##pū
metro
platību
ieguvēji
nostiprināt
objektiem
pilsoņi
jānodrošina
dažām
Vladimirs
##iskie
Jauna
brīvdabas
ieroču
plastmasas
nedēļām
laimes
platība
##01
##vakar
laikmet
konkursam
četrās
##lli
allaž
vienlaicīgi
draudzes
69
##ang
ietekmes
sarežģīta
pētījumi
jāsaprot
##saistīt
izmantots
LR
fo
noteiktās
##ham
pārmaiņām
ieejas
##skās
spēcīgu
nozari
##kšķ
birojā
pienu
iesaistīti
##nda
koncert
nodrošināja
žurnālistu
2,5
AFP
##PA
en
atbrauc
Dziesmu
Somijā
NHL
##IJA
ziemeļu
ierodas
##ogrāf
viesnīcā
Krievijai
Nordea
kāzu
stipra
Sē
priekšrocības
metalurgs
Austrijas
##tap
##IM
paņem
apsūdzības
attaisno
opozīcijas
##MU
saprotu
spriedumu
apzināti
četros
sabiedriskajā
Andra
aizstāvēt
##TE
locekle
dokumentiem
pacienti
mantu
##āti
##uša
Krievu
bibliotēka
Gro
Pir
rindā
Kok
atvieglo
mūziķis
institūcijām
izstāšanos
##line
skatās
bai
liks
pārdzīvo
nākamās
Met
pilnveido
nepilngadīg
Putina
##nijs
vī
Uzņēmumu
risinājumiem
pamatīgi
meži
objekts
ārstē
ž
vīna
pieteikuma
karu
Sociālā
organismā
minimālās
uzņēmumus
gudri
iepazīst
##kajā
vēsturiskā
##lap
sastāva
servisa
Berg
jomu
toties
konkurence
##bied
##gra
ražošanā
market
Triobet
pateica
pasniedz
Vita
##eno
publiskās
bīstama
##ošana
veiktā
skatītāji
##gād
klau
stingri
##ļā
##īgajiem
Lap
##ars
padomāt
federācija
nopietnu
grupai
##tura
publiskā
IZM
##cēla
komunikāciju
Savienība
##uru
viesnīcas
stājās
dzimtas
over
##ēto
Nākamā
ceļ
##inājis
līdzekli
vārtsargs
filmē
ražošana
Ezer
##lar
bailes
saraksta
lielajā
politiķu
nonākt
pazīmes
sir
pavada
Brexit
atsāk
Jansons
gaid
saņemšanai
##uns
kori
##mazgā
Jānim
##gla
tīmekļa
papildina
##lor
armija
esoša
TVNET
labāka
Gāze
Deputāti
pasniegt
##jauc
iegādi
ur
##kļa
atpūsties
ilgtermiņā
tiekot
uzsvērt
septiņ
zāli
##IC
vīn
##lav
##āžu
130
iemesliem
regulārā
dalās
stadionā
pamanīt
Stre
iniciatīva
pārdomāt
##TO
seriāla
##amais
veselu
##atora
reģistrā
traumu
paziņojus
Televīzijas
##gov
dots
tirdzniecību
izcīņas
veikts
sāli
Ford
##klī
Lei
sportiste
koru
Patiesībā
ievieto
##kuši
##dēm
##īd
dēvē
##eb
atra
##inskis
pārejas
##ārā
runājam
piedāvājuma
Dainis
##maksāt
veicam
##raut
darbaspēka
Dzīvo
Don
Salacgrīvas
##ĀS
samazinot
##oper
Zaļā
konkrēti
most
##mirst
Skr
neļauj
Zvaigzne
būvniecību
akcija
Lembergs
veltīts
dzejas
elektroniskās
miljardu
Stāst
kategorijas
paralēli
infrastruktūru
traktor
studijā
RTU
kabinetā
##ob
##kopj
KP
##rēt
oper
apskates
##ūta
Inter
stundās
adresi
##nīcas
izprast
sl
saņemot
World
puslaika
lidmašīna
garantijas
Še
kārto
ērtāk
noved
paaudze
ķi
Leon
##ys
99
Kuldīgā
Jēkabpilī
uzrādīt
galva
time
Visvairāk
Hol
Daļa
##diem
##īvā
Dānijas
Toties
Čempionu
līderiem
##spiest
ierobežota
public
piec
jauniešus
ceremonijā
normatīvajos
##ving
noskaidrots
februārim
standart
sastāvdaļa
ilggadēj
pedagogi
kontu
ražotāji
nosacījumi
virslīga
spr
##22
raksts
objekti
skr
aizvadītā
absolūti
sakrā
aktivitātēs
##oks
ierosināt
##ran
##īvu
piedaloties
koncertiem
Sim
rotaļ
piecos
izmeklēšana
apkārtējo
portālam
būves
ORDO
sniegta
kupl
drošība
Vēst
##poli
autora
##ozi
seju
Rub
snieg
ievērojot
nākamais
##eļa
tehnika
ieviešanas
nolikt
Lēmum
bāzē
Ker
Ogrē
atnes
##siet
aviācijas
Jaunatnes
jaudu
īstā
twitter
pop
gaļa
līdzīgs
##ils
bus
tiltu
daba
##inātu
##ener
##ore
aizsāk
##gāž
##dū
##dab
dī
pieteikšanās
##skaita
##toru
raidījuma
principa
##dis
skanēs
vēlams
##23
##AL
staigā
##darīju
apbalvo
minētā
uzticēt
Bil
noteiktas
##skaidro
Mārupes
Vismaz
pretējā
kok
ieeja
kaķi
veidots
Rezultātā
paskaidro
prognozes
ac
ciema
pastāvīgi
##pec
##zied
nodokļiem
miega
##jāt
dzimum
tirdzniecība
3000
rīkotāji
This
hektāru
kuģi
aprakstīt
##ogrāfija
septiņus
precēm
Mārtiņa
##īsimies
Gi
Ras
jebkurš
##enis
##sport
vērtībām
gribam
cietušo
spēcīgi
izdevumiem
kausu
Ābol
Dienvid
interesants
Ozoliņa
iekšējā
##mana
180
nosacījumus
##film
Projektu
kopa
aizliegumu
tērēt
volejbola
VIS
Sin
veikals
mak
##steig
ceturtdaļas
##tere
noformē
nenotiek
sniedzot
sastāvu
migrantu
grīdas
Ķekavas
##ejs
tehniskās
RE
##vēlēt
##īva
pārskatu
##pen
izpildīj
kļūstot
dzimuša
##enti
ēdiens
jāmeklē
zini
##che
profesionālā
84
##olu
skait
nodarboties
iesniedza
##jušo
vienotu
Ce
iekšzemes
atbildīgi
balsis
##cieš
just
garums
##nik
piens
Turpmāk
likumprojekta
Fu
publiskot
decembri
šoferi
Gaid
pētījumā
radītu
##eš
interesēs
78
Redz
basketbolisti
administrācijas
somu
premjerministrs
kamer
aizturēts
##gru
ekonomikā
nogādāta
mīlestības
karot
lidmašīnu
pārtiku
beigu
Skat
notikumus
sēr
ekonomiskā
##CI
ķer
##upe
metieniem
UEFA
īpašniece
##plāno
kakla
slavenā
privātā
ēdiena
cilvēci
ieņemt
vētra
nozarei
gaidāmi
##ĀR
būtības
īres
kredīta
##niecība
Kārt
bail
Samsung
Siguldā
Zemgalē
nerunā
##plat
izdzīvot
tauku
atstāja
lieliem
##rīko
sēdi
rādīt
##cas
mež
pētnieki
dienvidu
pārņemt
starptautisku
Spēles
beidzas
norma
sekundē
##70
izteikti
Tikšanās
pārvadājumu
māsa
kļūtu
īpašums
##pol
iepazīstināt
siltuma
Martins
izvēlējās
publiska
pārliecināta
atskaņo
Krāslavas
##ējos
virtuves
pantu
garšo
Briseles
Veik
kursu
lomas
##ēsim
sasniegs
Paredzēt
komponists
##bija
bagāta
ģ
Mik
##ST
Kap
baltā
##ejot
##ken
gaitas
##liju
Tālāk
eļļas
##gun
nodaļu
spēkos
negaidīti
##tību
##nta
##kaut
##lās
automobiļu
VM
##RĪ
justies
##āņu
##99
aktivitāšu
ieceri
izrādīt
pieteikumi
gabalu
izaug
##āžas
iekļauj
guvuši
maksātāju
##jāmies
konkrēto
infrastruktūra
##pan
Svarīgi
##pī
iecerēts
1996.
minētās
operācija
zīmi
turpinājumā
krasta
pārmaiņu
mēģināja
##ieniem
Sand
Šim
Tiem
patēriņš
Filma
attīstīties
atjaunošanu
atguv
Bei
vēstnieks
Kocēnu
pievienojās
##ab
Andreja
nodeva
##spēja
īsā
IV
ienākumiem
##ļauj
uzkrāt
vispārējās
aizvadīt
konkurences
Open
diskusija
iekļuva
fotogrāfiju
Poli
##dala
jaunos
jaunietis
##nti
##argu
##ītē
redzami
bankām
izbūvēt
##lda
rakstā
zvēr
##JU
kontr
Juri
##vīr
sēklas
##acī
naid
sitienu
mis
satrauc
##hs
Belēvičs
mērķim
Reiz
zīme
minēja
Biju
tradīcijām
noslēgts
apdrošināt
##led
sar
lu
iemaksu
brīvostas
izmantotas
biedrību
mazs
Volkswagen
krūm
norit
veidošanu
savstarpēji
konserv
##inska
Dai
inter
Sadales
samazināšana
izskata
aprēķināt
##tiv
tikuši
interesenti
tapa
līnija
Armands
##vērtē
##nom
##ident
Futbola
pielāgot
nemain
igauņu
laulības
secina
Han
brīvo
iek
Izrādās
vēstules
Tallinas
##īvo
Neatliekamās
Kārļa
plānotā
j
diskusiju
##niec
brīvu
nodota
komponista
vardarbību
ievēlēt
veidi
uzdevumus
ugunsgrēks
##CE
atkārto
##vasar
resursus
vērojams
##gūt
tabulā
integrēt
tirgo
radoši
absolūt
virzienu
gājis
efektu
vienkāršāk
uzņems
locekļiem
Lido
hokejisti
end
senioru
stend
jautājuma
ķermeni
Ter
telpām
ekskluzīv
##zīt
aina
skaitlis
Zvaigžņu
meiteņu
vēstulē
##devies
And
riskus
Spr
māksliniekiem
redzu
rekonstrukcija
tikties
lietošana
lielākie
nāvi
##eris
##lep
##nor
Gatis
faktori
asinis
balstoties
dekoratīv
radikāl
##lova
enerģētikas
##līni
Kr
##02
##ents
Aicinām
zināmā
diskusijā
pelēk
aicinot
##36
##dienā
pozitīvā
aut
pieprasa
City
Pū
rezultatīvas
lūdza
autoceļa
saturs
ģimeņu
Amerikā
lielākās
nodod
noskatīties
##kopt
testē
slimībām
izraisīja
##balt
procedūru
RA
Ikšķiles
inženier
iegūstot
speciālista
sagaidām
Zied
lemt
##TR
piektdienas
##iķe
##rim
uzbrukuma
##cināt
##rakt
trase
ple
Ozol
prezentē
Visiem
Inta
veidošanas
rēķinā
deviņi
##rāp
suni
tradīcija
reģistra
##gro
zinātnieki
##ināta
##gt
vīra
##prot
##evs
Lip
Mūsdienā
neparedz
strādāju
Nei
tiesai
noslēdz
##alu
diplom
vēder
Informācijas
mēneši
atver
##NO
1998.
karā
atsaucotie
Šonedēļ
ch
2014
vēsturisko
##aci
satikt
##māk
akadēmijā
apbalvojumu
māsas
enerģija
##zemē
sūdzības
iekļautas
mūzikā
pirkstu
brālis
distances
##niju
ceram
sekām
za
komentēt
grozījumu
Elvi
1990.
izmēra
modeļu
saraksts
plāni
organisma
segment
Svētā
augstākajā
zināšanām
tomātu
##MS
prātu
Lielo
Lielvārdes
likum
ieteikt
##rak
##vej
tieslietu
nepieciešamība
drīzumā
saul
nominēt
padziļināt
saistītā
svinēja
nolemts
reaģē
augstskolu
##NĀ
Ēr
konstatēti
pludmalē
##turēja
datora
ieviešana
Sk
sertificēt
Ziemeļu
nest
##kro
pārskatīt
sarīkot
Div
##iska
Sti
##metri
ierīkot
pastaigā
Otrs
Būvniecības
kļūdu
modernā
iemesli
Lauris
ielām
nepārsniedz
##26
normāla
##skrien
mērogā
##vīzi
noskaidroja
tējas
88
baleta
Pel
jaukt
Lithuanian
Sar
izaicinājumu
atļauts
##stat
automašīnām
MA
saskar
septiņu
pierādījumu
bērnībā
atrasties
parādi
vizītē
organizēta
Bērz
On
pieejamo
Liep
uztvert
Straujuma
##raud
ciemat
##priec
slēpt
slimo
veicis
pazīstams
##drā
##iņam
Zu
īpašas
daudzām
nogalināt
##ktor
Lielās
pieaugs
rūpnīcas
reģionālā
Baltā
Nacionālais
##jamās
saimnieko
diskutēt
atzinību
avotu
mainījies
karš
##augs
silta
biedriem
Sam
##ējies
kru
maiņas
istabā
work
siltumenerģijas
uzliek
aizņemt
iestādi
lielāki
DNB
brauciens
vilcienu
##maz
pagatavo
##joši
apmeklētājus
mājokļa
##able
Rīta
1,2
rekords
konflikta
dīvain
##kalpo
potenciālu
pusgadā
##spējas
aizgāja
##ālais
##lekt
jaudas
tuvojas
māk
##līna
uzvarētāji
pieņemšanu
##nov
##odu
ok
##ated
Ste
dziļi
sapņu
locekli
reāla
augsto
savlaicīgi
1997.
Aleks
Visā
ierīču
Atgādinā
Britu
##IK
##mēt
##SI
mīlēt
iekšējās
##žot
##ušos
mazgā
izsoles
viesosies
kvalificēt
EM
dāvanas
oktobri
DA
apgabala
peldē
izskatīšanai
domājam
uzbūvēt
##skaņo
atalgojums
zivis
Šķ
##lēp
nezin
indekss
81
nepārtraukti
netīr
ceļam
portāla
samaksa
izcīnot
jaunajam
All
skaidrot
dzer
##skalo
##saimniec
##ēn
brīdina
Gandrīz
darījuma
des
##ākas
1999.
##enā
krieviem
izcila
Pēdējos
cukuru
##skas
Šādi
rīdzinieki
sezonai
##dzina
##oņa
kanālu
##inājums
Vispār
virz
invaliditāti
tiešraidē
##its
Imants
Bul
klients
apkaimē
uzņemšanas
pirmajām
##glā
panāk
dalīties
prioritār
uzbrukumā
autor
departaments
bezdarba
##onas
tēmas
pārbaudī
šovakar
simboli
vērsta
partijām
Salīdzinot
semināru
skaļ
raksturīga
izvēlēta
tēvu
katoļu
medus
Ziņas
##PI
Sākot
konstatēta
Čakša
apkopot
realizēja
Eiro
efektīvu
efektivitāti
##jom
##tona
Saistīb
##amas
astoņus
precizēt
cirka
terorisma
Abu
palielinot
Paš
tieša
pietrūkst
kāpu
##amās
##žiem
garantē
kolektīvi
balta
profesijas
materiāls
sociāl
##ari
Nākamajā
nervu
##lovs
tuvo
##enta
##TV
##daļā
##net
viet
popularitāti
kartupeļu
sniegšanu
Kristapa
1992.
cīnījās
##ZI
Laiks
sirdī
kul
vēro
puika
Biedrība
idejām
kompensācijas
##iskajā
##iļ
sarežģīti
pievērš
aktiem
Hel
samazinājums
versiju
atvērts
##ally
pārrunāt
##ītā
90.
rakstīts
dalībvalstis
olimpiādē
NA
Ogre
mat
LA
##kalns
titul
tāl
##55
Vienā
karstā
pilda
pazīstami
##diena
Austrum
aizsargā
nācies
eļļu
82
pulcē
miltu
pārvaldīt
pārrunā
kasēs
apbūve
receptes
atrasts
##ciema
gribēja
piedzīvojumu
people
Nī
zona
turp
jāievēro
būvniecība
mācībām
konstatēt
sociāli
metriem
dzirdam
Krimināllikuma
simtgades
##los
meitu
Barona
port
Mus
##biju
vidusskolu
##nte
adrese
ātrā
izveidojusies
noskaidrotu
principu
Divi
slēpo
government
konkursos
dārzu
0,5
kanālā
sadales
tavs
vairums
##rag
pilsoņiem
##uve
Jūlija
##projekt
Men
Martin
##cep
##day
izaicinājumiem
alternatīva
skaistā
vairākums
##aiz
uzsverot
##odi
uzņemties
patēriņu
##sen
Tar
nelaimes
dziļu
ceturtdaļfinālā
##ējums
sugu
griez
tērē
apņēm
zviedru
manām
Zatlers
ieraudzīt
balvai
skriet
pasargāt
Bro
##īz
##IES
##07
##pasts
samazinātu
tirgot
aktieru
##ģu
Daiga
sistēmai
faktors
##ceļu
vadot
izdomāt
organizācijā
piektā
ča
Ger
glābt
##ruk
Iepriekšējā
##ifikācija
Sociālo
pievienoties
atjaunošana
spēcīgā
Seminār
pelnīt
##jat
kopīgā
uzraudzību
brauca
##ņēmu
dzīvojamā
iemācīj
##ānā
saimnieciskās
gribi
mērķu
maģistra
pārvietot
89
term
ieskatā
koks
veikšanu
Film
Cent
nepareizi
prie
veselība
smags
plašs
##ātā
sertifikātu
Kādu
glezno
protokoli
neaizmirst
spriež
vadošā
##vada
vēlies
stilā
autovadītāju
upuru
Tre
sliktu
bij
reģionālo
##istiem
pēdas
79
Či
izcilu
pārsvars
gulēt
pieņemšana
liekot
saku
alu
tre
negatīva
attiecīga
##ac
Til
vainu
##īšos
pareiza
vecums
svarīgāk
##ieša
obligāto
##ical
##jamā
Dom
nometnes
šādām
maziem
##-1
tapis
##pēc
Saul
motivēt
kompensāciju
izstrādāta
politiķiem
mākslā
sanāca
##lijs
standartu
Universitāte
##mīl
##roz
satiksmi
segt
Pasākumu
audzis
##miņu
strādājošo
Kla
skaļi
uzpildes
drošāk
saslimšanas
Tava
pagasts
atstājot
lielie
ietekmēja
kampaņu
Kro
Pasākumā
līdzšinējo
##ary
##klis
izsaka
iespējamu
0,1
##vic
krustojumā
demonstrēt
lietuviešu
ģenerālsekretār
140
aust
plānot
Amat
DB
Eva
aizsardzība
efektīva
##vič
atņemt
ilgāku
atlīdzības
##sūdz
novēro
maig
oficiālajā
sazināties
īstais
loģistikas
Spānijā
Viktorija
veikali
profila
Jer
Ķī
gabali
sad
veiksmes
Korupcijas
virkni
NVA
##RĀ
Vad
5000
bēgļiem
0,2
robeža
Tallinā
atgriešanās
tehnoloģijām
sajust
##grā
neveic
identificēt
ilgst
##una
ikgadējā
izlasei
stresa
##ļin
uzvedum
ārējo
labklājības
##tūras
kausā
aprit
sarkanā
sakopt
vēlmes
metode
Tour
Koncertā
teicis
##tver
kabinets
prieka
##liel
darbiniece
izdevīgāk
darījumiem
samaksu
autobusa
mediķu
stra
solīja
okupācijas
BM
radīto
saglabāšana
īpašumi
apakšgrupā
kultūrvēsturisk
##tīšana
izglītojoš
##rst
pamatskolā
neatkarīga
karalis
##LĀ
būšot
peld
cigarešu
spiesti
uzvarētājs
darbībai
eksports
ugunsgrēku
notikušas
Kārtība
puisis
##skolas
vērtējumu
regulējumu
kanalizācijas
spiest
militārās
minimum
##ētāji
Mercedes
šovu
juridiska
Arnis
detaļas
Rok
plūsmu
trijos
saprastu
##ust
business
Otrkārt
sērija
doto
izpilddirektors
personīga
##lūdz
regulējums
jaunākā
Person
anal
##organ
IE
rotaļu
##īra
##ili
balsi
mājokļu
##diņš
iedzīvotājs
Aizkraukles
ierasties
audzēkņiem
apmaiņas
īsu
izcilā
padomā
Uzvar
radošu
veci
1995.
virtu
##pāt
emocionāli
Pavisam
finansiāli
lietotāji
parasta
Ašeradens
kafejnīcā
let
Indi
aizsardzībā
reižu
ziedojumu
##skatīja
Zemessardzes
##celt
analizēt
ikviena
Centra
stūrī
norēķinu
svaigu
virtuvē
redzējis
##cor
Fin
Vienmēr
##DO
populārā
paziņot
Plāno
##īn
mobilā
##VE
nozīmīgi
vakars
aicināt
izglītībā
izriet
ēkām
##low
neapmierin
aknu
sarunām
miz
parādīja
##NU
pavēl
##bank
poļu
Pop
sapulcē
daiļ
Spēlē
saimniecība
kompetences
Turciju
metienus
spiedienu
nospēlēja
pirmajās
Past
prezentēt
gaisu
kritumu
##ara
ievēlē
ievērojamu
Augstākās
##igu
sastapt
rokā
risināsies
līmenim
nami
1,4
noslēgsies
muskuļu
neatkarību
speciāla
ieguld
īstu
##SA
ceļojuma
##vilkt
policistu
piesaiste
##īcija
Laima
Mag
konsultē
##ziņas
aicinājumu
itāļu
filiāles
Pr
mm
##mentu
milzīgu
nekāds
ģitār
sulu
##līgu
jūr
##sezon
lems
##mār
Ķīna
##mont
VL
aiztur
apakšpunktā
aptauja
puslaikā
uzturēšanās
##viela
ārstēšanas
precīzu
lūg
izmeklējumu
izskaidro
epi
vizuāli
tax
stilu
##igs
##cies
sacīt
##ella
Izstādē
apli
apģērba
nekādā
##pre
konkrētajā
spēcīgs
Plašāk
RSU
##ākajām
August
Kat
līderu
makšķer
pašreiz
Nam
Pašvaldība
apmet
##44
noslēpuma
puiši
iemaņas
retāk
Gau
mazais
Petr
Otra
tēmām
Ātr
total
informatīvo
##27
kandidātiem
##aku
sap
Firmas
gribētos
sv
milzīgs
nejauši
86
##ošos
##īvi
prasība
sekretāra
vecākais
##pēr
vēsturiski
izsludinā
nodrošināšana
hibrīd
Igors
parku
olimpiskās
ieceres
dopinga
Grupa
##ujorkā
muzikālā
vienojās
negod
##anas
pilsētai
būtiskas
uzskatīta
Divas
aprēķinā
februāri
##TĪ
Jūr
aizbraukt
##EK
##mirs
##pusē
suņi
zirgu
##NI
dzīvesveida
liedz
##ķir
lēnām
Tro
lauka
noteiks
nepieciešamos
grezn
Projekts
deklarācijā
iegādes
##kovska
##darbība
šokolādes
##AIS
##gāja
Dāvis
rīkojumu
piegādi
kandidāti
##SS
plašāku
paredzot
nolēmusi
atbalst
##mju
##raksts
triumfēja
##kcion
diskutē
Europe
veiktu
gandarījumu
##tors
smagas
droša
tenisiste
nozarēs
palaist
Can
atkāp
likumi
Oskara
##tei
mazāku
klāstu
stratēģiju
dzīvnieki
agri
četr
pavasari
por
zvaigžņu
jaunākās
##mpi
kuģa
##let
pārņēma
ātr
Katrīna
rasties
statistika
maksājumus
radījis
transportu
akcionāru
pozitīvas
devušies
apjomi
##bag
aci
organizēja
TOP
Indijas
mazās
##TIES
##izācija
##burg
pārliecība
rakstot
tēju
izbeigt
##gin
veikto
##ziņā
##īgumu
gru
zemāka
klātbūtni
metalurga
##lak
nopietna
klienta
atveido
jāpieņem
##old
radošajā
##tija
##laist
guvusi
Cēsis
gripas
Sep
20.00
##kcijā
##pel
norisi
##ģē
konsultante
nelikumīgu
saimnieku
bijušā
skolai
##04
viņām
saprotams
Rit
Ivan
Pati
##maņu
##saukt
##ācijām
##kste
detalizēt
##šam
robežsardzes
##deva
del
atlaides
bre
atmosfēra
mus
##dy
##darbi
##ben
##tern
orientēšanās
Darb
Lietuvu
tīri
medību
abās
##zel
##ĒR
pirks
Dmitrijs
##person
pārvald
dominē
Zviedrija
##tom
vizītes
mazinātu
dalība
##gūst
žurnālists
Nils
##dor
apsteidz
##MO
countries
Kom
atmiņu
izglīto
SM
izvērtējot
devējs
posmiem
publiskajā
##lijas
ministram
direkcija
pasniegta
bīstami
ģeoloģijas
##niekā
##grē
iecirkņa
asinsvadu
ikdienu
novirz
##eka
kādām
Dombrovskis
lēnāk
Izstādes
vēzi
photo
redzēju
Goda
pusotra
Gaujas
Alise
notur
pieņemti
pārkāpumi
moment
zvan
klausīties
##nība
svarīgākais
krāsā
aizturēj
gatavību
tonnas
Rīt
##niņa
radīšana
esošajā
##ace
šādos
komun
pārvarēt
sveic
trešdaļas
principiem
miris
līdzfinansējumu
##34
meklējam
ārzemēm
##niekus
pastiprinā
integrācijas
##bli
Agrāk
padomē
centros
tētis
visaugstāk
Šķiet
##ētos
formātā
lasītāju
centri
sākusies
1993.
Līvānu
kultūr
alkoholu
##riju
plūsmas
platības
masa
konfliktu
stacija
##az
atgriez
ziņot
##plūst
tū
vietai
pilnīga
Plašāka
Ministrs
spilgtāk
Hotel
Valters
##aini
svaigā
##nim
secināts
valstsvienības
##ow
stadijā
ieradies
Bite
##hen
sūdzību
pierāda
meiteni
junioru
puķu
resursi
esošais
Sacensību
biržā
##kv
mammu
dra
##jošs
noder
viesus
##ear
report
Sten
elpo
ejot
izcēlies
##krist
nespēju
kauss
Anglijā
paskaidroja
skal
tenisa
aukstā
nonācis
dēli
pārstāvjus
##rijas
distanci
maršrutā
komisiju
triju
atbildīgs
tradicionālo
vajadzēs
nodokļi
pastu
sav
neiet
rosināt
##ojās
tēla
dalības
##nge
##nei
Union
atradīsies
eksāmenu
medikamentu
nepieņem
vēdera
āda
priecē
biznesā
deviņos
īsāk
piepras
balstīta
dzimuma
Ana
DP
##kovskis
stunda
dodoties
nenāk
krīzi
devu
skatoties
LLU
ielās
sedz
##būv
izveide
zaudējuši
aprūpi
##06
Dārz
līdera
deviņas
attiecīgā
saskaņo
televīzijā
izsolē
aizpildīt
##ēra
restorāna
izredzes
AB
barikāžu
veiksmīgu
pakļaut
##ny
Minister
pieņēmusi
##skaitot
protest
83
mazi
palielina
izstrādi
uzstāšanās
drošībai
izvēloties
last
Meitene
publicēt
kanāla
standartiem
galīgi
##dienu
garša
##āļu
radītā
spējām
izbrauk
turnīros
##DU
nobalso
paņēmien
Pus
pusfināla
sarežģītāk
svars
ogas
kolēģu
zaudējums
Ceru
ievest
negadījuma
temati
stimulē
prāv
##plē
Kū
##03
##šķīr
deputāte
Papildu
runāja
##ED
turpināj
virsmas
##mato
kurienes
##tim
kvalitatīvi
dzintars
faktoru
programm
iesāk
acīmredzot
piedalīšanos
##ināti
iepriecin
praksi
dzīva
sacentīsies
iegūto
apmēra
mēģinājumu
tukša
energo
##nie
prioritāte
LAI
##anta
lielajiem
ēšanas
līgumā
darbnīca
bagāti
karogu
LI
Evija
rīkojuma
meteoroloģijas
##tiskā
paziņojums
spec
stiprāk
labākos
kampaņa
numurā
sekos
piegādā
dāvana
zonu
medaļām
potenciālo
septīto
##oci
komentārus
reālā
Ram
Pur
pakāpi
##braukt
##skan
##iskas
uzstāj
firma
uzaicināt
uzdevumi
##IA
same
visādi
##ilu
pārlieku
pakalpojums
rī
Dam
##enas
##ative
atpūt
Gunārs
SK
##aties
atradīs
##paš
##spēles
grū
kriminālprocesu
būtiskāk
mul
##lera
posmi
project
bagātā
##ngu
datums
viesnīcu
make
Šķēle
kultūrā
##vars
2017
##ētāju
metodēm
vainas
##dzird
Universitātē
##iņus
##kciju
cīnīsies
##ināties
ļau
svaigi
siltāk
ekrāna
80.
baznīcu
##oloģe
Stambulas
Kun
jaunajām
īsto
Der
vieglā
atkārtot
kancelejas
izlasīt
Pal
May
Cita
tēlo
darīs
aizliedz
publika
saimniecību
##iķu
Merkele
##minēt
##gr
audzināt
Jauns
viedokļu
Solvita
##rkst
spē
vingrinājum
##kers
Cep
ābolu
Dec
gaidāmajā
trauku
telefons
izmeklē
##iera
##bele
##dre
Reizēm
Nedēļas
izpildījumā
Tādā
Noteikti
kaitē
deklarācijas
glabāt
svētdienas
Rinkēvičs
izl
sagādāt
aktualitātēm
taksometru
Ren
nedod
īpašniekam
Koļegova
##bir
pants
sertifikāt
Kei
muti
##lītis
uzrunāt
sapnis
labuma
##ģijas
secināt
pārskatā
gāzi
Indra
##zēm
aptver
##skatīt
samēr
sagriezt
##,000
Roman
Pievieno
##stra
bildē
##dziņa
dāmu
maratona
##pp
stratēģijas
astoņu
Virs
vecās
vitamīnu
nolēmis
LP
gāju
lepoties
aplūko
##ājos
Ven
##42
ml
Ozoliņš
pil
ābol
Kim
plānus
augš
##īšanos
##rakstīt
apstiprināts
##uzņēm
izstāšanās
noliedz
iesaistīto
atļauj
Aleksejs
##sakot
1500
Mūrniece
jāsaka
ieguvuši
##ME
Tallinn
there
atzīmēt
popularizēt
finišēja
cikla
##teikt
they
##rdz
##enci
Vent
profesionālu
Būtu
militārā
segmentā
##redz
iesniegšanas
cilvēktiesību
Tāds
nomaksas
atšķirības
centram
ceremonija
uzdevumiem
laiki
##dama
##cīn
uzkrāj
Trans
92
būtībā
pētīt
##rīga
studijām
nodarbināt
operā
##īru
varen
maijs
pabalsta
##inājusi
grants
##pju
##her
studija
##niekos
##uļ
Ziņu
novērtējumu
starts
izjūt
Pil
izlietot
Bai
##udze
##gatavo
karoga
##ģeļ
sestdienas
##95
spar
profesionāļu
##mbu
veltī
kameru
Sēdes
zirg
veikusi
gaisma
##29
dob
Mazā
muzikālo
##ivi
##mper
pārstāvēs
vienotā
smiekl
##48
skart
atved
paliel
tēti
garo
aizturēti
atzinīgi
iemācīties
preci
redakcija
Cir
Zinām
noslēpums
jaunajai
veicinot
deviņiem
abos
konkurenci
sakārto
pirmdienas
taup
balle
Kra
sasniegtu
##zol
metāl
pieaugt
likteni
##kars
zvanīt
##kart
patiesa
##ņev
nozīmīgā
##aust
atradu
brāli
attēlo
Bī
##nēs
Food
Centrālā
pup
Bas
apmaksā
##DS
uzticību
slikts
bēg
##dināt
kapteinis
fona
globālā
##nus
tele
##tība
staciju
organizēšana
okeāna
##EI
tendencēm
State
Pasākums
Ķi
melno
beidz
studēt
laikraksta
Filmas
Cilvēks
remonta
##ejā
mājokli
##ations
izraudzīt
vajadz
CSKA
absolvē
pasaulei
kodu
kaitējumu
vārīt
160
turpinot
notiesāt
neņem
##jaun
Android
komandieris
##28
##nai
uzsākts
kolektīva
fan
dega
##tec
rūpējas
kompānijā
##skatā
##tiska
Visbiežāk
profesijā
štata
kandidāta
darīts
Ugunsgrēk
brīžos
dzīvesveidu
posted
sienu
terora
##din
līgumi
lietojot
sešos
sapņo
finiša
stadiona
komponen
līdzdalību
sh
##ģer
analīze
sasniegumu
atgriezīsies
##12.
atšķirība
##šās
plūsma
87
pieteikumus
mald
advokāts
Nekā
stājas
Ilona
stingrāk
##plo
Ur
operators
septembri
Rud
vieglu
domāts
vērtējumā
nodrošināšanu
radusies
sākumskolas
savstarpējo
stre
disciplīnā
piektajā
Mēr
sist
##loc
pievērsta
noziedzīgi
automobili
atļaut
pirmos
iztur
izvairītos
brīn
koncertos
Laba
##dūr
slodzi
produkcija
citē
ieplānot
priekšlikumi
##stiep
Vest
##ājās
ražas
konkurētspēju
Savčenko
beidzies
mēro
varēsim
programmām
##anna
Programma
Jē
ostu
pamatkapitāls
prioritātēm
iecere
izņem
noņem
##INA
precizē
Skaist
1,1
##ušie
sulas
iebrauc
##RIS
mier
kopšanas
##ship
atšķirīgi
atsevišķas
neder
350
labās
sagatavošanas
robež
patrioti
apspriešana
locekļa
uzņēmējdarbību
##baro
##smēķē
testa
nonākuši
pirmkārt
##viļ
mazuli
dzīvei
Klu
tavā
dom
upuri
seno
palīdzot
##print
laimīga
iegūta
vienībai
mainījusies
numur
centimetru
piespriest
arii
reģistrācija
upē
klusē
akcijā
ieraksti
##kvalificē
tautā
pārbūve
estrādē
Vienīgais
Volvo
radīs
atjaunota
dārga
Nezinu
zema
##mūzikas
##lat
##rdin
tabakas
pieļāva
konteiner
draudus
analizē
Annas
##avi
Latvieši
pārliecināti
Anete
debijas
##krāp
mainīties
versijā
##47
##rijs
automašīnā
pieaugušie
Vei
likumīg
ieguvēja
futbolisti
##ID
lielus
izpildītāju
Viz
liet
##nīcā
1994.
Spurs
Mājas
eksportēt
Dzīve
##nč
Pašvaldību
ebreju
kafiju
ēdam
atbilstoša
##gon
pārvadāt
plašā
parakstīja
iesaistījās
ārējās
ceturtais
atpazīstam
indivīd
hallē
Grupas
##ect
pārklāj
Grieķijā
##zēt
Krūmiņš
tramvaja
komponistu
maršruta
precīzāk
krieviski
asi
saglabāšanu
traucējumi
##ET
Jautājums
Lielākais
ievainoti
uzturā
##audzē
##NE
pacientam
Gad
dzim
laulību
##ips
vecākus
ārvalst
jūra
##rāda
pilsēt
zaudējuma
investēt
Atsevišķ
zēnu
rādītāju
vistas
ticība
##vaig
Service
Gun
putni
skriešanas
##zinot
sākumu
čip
izskanēja
beigas
pretrunā
lielākajām
kukuļ
##jera
grūtībām
viedokļi
strādās
aktīvās
deklarāciju
dec
īstenošanā
programmās
##ĒT
##75
Berlīnes
pacienta
Krustpils
pāriet
draudzene
nosaukuma
pārliecināties
pilnas
##bre
ai
##ern
koncertprogramm
##diņa
abus
jēga
ekspluatācijas
Kādas
##38
Krās
sportu
##tūra
viz
pulcēja
divīzijas
izdarīts
##37
Krūmiņa
izsniedz
dažreiz
Laikrakst
Rein
pārvērst
##eņiem
import
neuztic
negadījumu
ugunsgrēki
96
##līmē
prat
Dal
##ovam
saglabājas
rosina
##sēž
Ungārijas
regulēt
##aki
apliecināt
Domā
Nevien
ieguves
vasaru
Nord
Mūs
Igauniju
##ib
##hor
Uzskatu
##ūtī
pieejamība
reforma
diriģents
Koncerta
##ināšanā
saistās
##zāle
palikusi
Jaunās
##33
minēt
apgalvot
##tina
neveiksmi
piešķīra
kalna
KĀ
##tīvs
##ētājs
##ināšanās
loku
krājumu
Andri
pārstāvēta
kaujinieki
vakaros
Piec
Ivo
III
Pul
##ZE
##biņa
##ināšanai
lapa
grūtniecības
vērsā
##pj
nosacījumu
jāzina
darbnīcā
līgumus
apzīmē
Atbild
vaicā
stat
##lejas
principi
ziņojums
##mus
Eli
savienot
OM
Bos
taut
ļaunu
paskatīties
norādījusi
nāks
SKA
gaismā
##ušais
##oloģiska
##ozes
Ozola
Ham
operatīvā
remontdarbi
aizturēta
kāpumu
pasaku
##ziņo
aizturēt
salu
50.
Ainārs
##urg
latvie
mazas
##bel
atraduši
dārzs
mirst
karsta
dāmas
##eklis
apakšgrupas
Fil
veļas
sol
##lauž
fakti
##32
ienākumus
##ieru
##iki
Liek
izd
HK
ber
nopietnas
Biķernieku
uzrādīja
vērš
operatora
pasa
##dera
personība
##vesel
##ments
piekrastes
##čo
trijās
testu
Dod
##11.
nogale
gu
Bat
alkoholisko
personīgā
braucēji
autoceļiem
##ēšu
boks
sēd
augst
pensionāriem
##nn
Divu
ainavu
nepieciešamā
centrālajā
slēpjas
darīja
fanu
kaķu
Den
teicu
##mācība
##39
BA
negadījumi
Saim
apseko
##IT
dūm
pusotru
##OL
mājinieki
Izraēlas
raidījumam
aizsardzībai
tirgotāju
##LV
##ata
lekcijas
nepilnu
rādītājiem
##MP
izstrādāts
atsevišķos
##ciemā
nupat
Uzvaras
pretendē
mehānismu
priecīgi
individuāla
Motor
Gribu
gādā
ceturtdaļā
cīn
##ētās
##reib
##ize
pienākas
##darbību
ras
Jeļena
kāpņu
Kli
nodarbinātības
novērtēja
dienestam
baud
kartē
noteic
partneru
draugus
Dia
##balso
rīkoja
##LS
ziemeļos
Lit
literār
##inājumu
##kuļ
Viņai
izceļ
Apr
lidmašīnā
Āzijas
Irākas
nesaņem
##itas
Anastasija
sargā
atgādinā
##nīca
nelielas
ripu
šaubas
Jaunieši
darināt
Dalība
gaidāmo
Altum
uzskatīj
Vit
struktūru
gleznas
lidosta
juridiskā
##pli
##bat
pilnvarot
##padsmit
viesojās
lēni
ceļot
vīnu
pantā
panākumi
īsts
Pēr
Administratīvā
gaidām
apsardzes
ieviesta
##ksne
jāaiz
##gins
talk
##meņu
minimālā
priekšroku
mantojumu
noskaņu
sliktā
Māl
veiksmi
stabili
situācijai
elementiem
##āzi
sasniegusi
pastāvēšanas
finansiālu
tranzīta
##UL
##laus
veidus
svinības
Paralēli
ietaupīt
98
runāts
marts
iekasēt
būdams
piedalījušies
Hor
kustībā
atzinumu
##mija
##ante
kļūdām
##ences
devis
##āšanas
brīnums
pielāgo
partijai
smarža
kapos
Ciet
miljardiem
##risk
tīra
Bēr
intelektu
##bergu
Vienkārši
But
##amie
izgatavo
ikdiena
Mad
Kopējais
tiesiskās
versijas
zaudējusi
apdrošināšanu
līdzīgas
ceļojumā
saglabājot
darbinieka
LM
bijušās
##,50
stabila
##ekli
uzstājās
attiecīgās
sastāvdaļas
domājot
sabiedriska
Lāč
piedāvāto
politiska
pārliecināj
definēt
dziedātājs
Lemberga
biržas
investīcijām
##oloģijā
ceturksni
pastāstīt
komand
regulējuma
atgriezies
neslēpj
##ologu
koki
noderēs
šūnu
biļete
divīzijā
labajā
##bet
nogādāti
skaņdarbu
##itis
##vij
bijusī
##ošajiem
Itālija
muļķ
dejotāji
dizainu
Birz
King
ogu
zemu
ziedi
##kevičs
Pak
vājā
Sieviešu
autobuss
Pieteikum
##pināt
##jūt
dārgi
praktiska
##uda
režīms
izmaiņu
gribēju
paspēj
##kulis
Meklē
ti
eļļa
94
##braucēji
Marks
ilgstoša
jūru
liecības
well
bērnudārza
metri
kalpot
3,5
##rej
uzbrukumiem
arhīva
##zon
peldēt
braucu
##stājies
beigsies
91
izpēte
būsim
bataljona
savdabīg
izsaukt
atbalstītāju
medicīnisko
##PĒ
##dzēs
Norvēģijā
simts
ilgā
trek
cenšoties
sākotnējā
sastopam
jādodas
laimīgi
istabas
Štein
Polija
neatbild
##ekļu
prioritātes
nevienā
patērētājiem
##kalne
piecās
##žos
Austrumeiropas
##zija
nākotne
organisms
Zaļ
##KT
paaugstināta
pretendēt
secin
mačs
##ics
##ēšanā
Windows
maksāšanas
##kļāv
priecēs
kursē
##tle
asinīs
pasažieriem
##ade
##tū
neievēro
animācija
##zog
grāmat
ieraksts
Tevi
Kārli
CV
##ndi
Pastāv
##ano
##ovas
##link
nomira
Labākais
##mor
mī
Alūksnē
piekrita
pušu
braukšana
##cīt
draudzīga
##niecību
##gājusi
Microsoft
Pūtīs
gultas
AM
saknes
saņemto
mērķtiecīgi
izklaidē
neilgi
member
##niecībā
##tras
saprātīg
paraugu
Augst
Māj
apgalvoja
Tostarp
aizstāt
sīkāk
priekšnesumu
vesels
Rolands
domi
nokrišņu
atbrīvoties
atjaunoja
programmai
braucam
Bla
profesionālajā
##griezt
fotografē
Šādā
##daž
izlaist
taisīt
papīr
##iķi
##uls
iesākt
suņiem
sīpol
uzturēšanai
juridisko
novadiem
treneru
Aktīv
##ica
##dīšana
LTRK
augšā
cīnīt
brīvība
starpība
##regulē
gleznu
atceros
cimd
izsludināt
sausā
##ādes
gril
Feder
grafika
##tari
Aicina
##mers
sociālajiem
##kāpj
debesis
##jošais
dibināts
augs
noraidīt
cīņās
izstrāde
basketbolists
potenciāls
Citi
##riņa
iPhone
rūpēties
Paul
Mol
infekcijas
##adi
laikrakstā
##ēsies
##kre
apguve
number
dziedātāju
īpašām
termiņā
##rovs
##vedīs
advokātu
aprīli
##ērijas
CE
two
Jana
iesaistās
lēma
Ķ
##mur
realizācijas
meklējot
##desmit
sīpolu
fināls
TA
##grāfi
Zatlera
Skaidrs
būvniecībā
princips
##46
##TRA
prece
zināja
tālruņa
salikt
priecājas
objektus
Trešā
plašas
dzemdību
aktīvo
izskatu
Mac
organizētā
jāatrod
kopvērtējuma
maizi
importa
Darbi
atbilstošā
##ādē
kamera
stāstī
izbrauc
##jautā
ievēlēts
pusgada
##ix
vēstniecības
baltu
rallijkrosa
##inga
Investīciju
mati
smagāk
Kuk
Palīdz
pārvades
svinīgā
##skaitīt
līdzīgā
##lot
Budžeta
pasūtījuma
recepti
setā
zināmas
komercbanka
##audzēt
sagriež
inženieri
vēsturiska
veterinārā
##02.
Ran
saskatīt
rūpes
Jun
##pārdomā
izcīņā
pusgadu
##pūl
auga
augļus
klausītājiem
dzēst
savstarpējā
##ējus
nacionālajā
spriedums
iztikt
piederēja
##lādē
neplāno
dzimušais
##ādi
izspēlē
kvalifikāciju
iespējamiem
Kaz
##līst
##eiro
unikālu
apdraudēt
Island
svaiga
procesi
iznīcin
Valdemāra
skati
skaitam
vākšana
##lizācija
vīrusu
Kandavas
pasniedza
tehnikuma
pieslēguma
rezultatīvākais
remontu
šorīt
ārstēšanai
aktīvs
##evičs
laist
finansiālo
die
kompleksā
Cena
Oper
alianses
laipni
pārsniegt
zaļā
pietur
Daž
##fs
##RT
māti
reziden
minēta
reģioniem
Bull
##VĒ
tūkstoš
97
##vieto
regulāra
notikuši
##bak
##ošiem
leģenda
īstenota
Ozols
##nka
formula
##guļ
izlaid
Skrundas
##diņu
neietekmē
piemēroti
gs
uztrauc
obligāta
brut
karšu
##fal
star
Tomass
piedāvāts
##ņe
##ork
pacients
Avīze
##mēnes
Tal
##wa
nostāju
pensionāru
īpašnieka
Sudraba
nodevu
dzelzs
nesaprotu
Slovākijas
sākts
lietās
maina
Ērika
##līga
vēstniecība
elektroniskā
IN
##dēl
Roz
##KĀ
novērš
bumba
sešām
kategorijās
padomus
dokuments
NBS
ieteikumus
lēmumiem
##ON
##lip
nopietnāk
eksperte
sankciju
##act
##mun
Liepiņš
##nig
Vienu
Brū
minētajā
##bit
apstiprināta
Lav
##vert
Vairāki
secināja
##čenko
##auska
būve
##ids
##1.1.
##marš
klubam
##klausās
##upes
izglābt
mehānisk
nogalināti
loti
##sildīt
prasmju
izdevīgi
##rīt
sin
Sabres
privātajā
##zh
Ind
interesentiem
Liepāju
savvaļas
inflācija
izskaidrot
vienādi
##ula
##entu
paredzēja
ekskursijā
atgādināt
##rav
lielām
##hy
##lei
kritizē
##ekļi
staro
##rif
##ežu
##fl
izcili
Berlīnē
nemitīgi
##rādi
Rally
##feld
instruments
siers
Darbu
šovā
sub
##ong
zu
Capital
Olainfarm
nejūt
pretendentiem
##ome
##skriet
Rūp
serviss
laukiem
Brazīlijas
tapusi
iesāka
bāze
iesnieguma
lietojam
atvainoj
0,3
plakāt
atjaunošanai
izpildīja
avoti
gājiens
Raidījum
ieradīsies
loks
##pildīt
tirgum
after
teritorijās
##otāju
##ĀM
sadarbībai
Trasta
kafejnīcas
celtniecības
elastīg
##sakām
sniegu
into
mut
diriģenta
Aptauja
nodibināju
##jut
pozīcija
##oju
##iķis
veikl
servi
piemērotu
speciālās
##our
##31
zēns
apritē
piemērošana
pjedestāla
##rna
atrodoties
saistošo
elementi
93
Pod
Minskas
strādājusi
pabeigta
##mark
VIDEO
Anderson
ekstra
pateicību
##ĀK
stāstīs
ļaužu
apstiprināšanu
remonts
analīzi
spiediens
informācijai
##līte
uzvārdu
##lina
##bl
##patik
Gruzijas
ietekmīg
ieteica
##kls
##oma
telekomunikācij
Start
ārstēšanā
smadzenes
Naktī
ķermenis
##tens
##tīvi
pilots
uzdod
aizmugurē
JA
viltot
tuvākā
sagatavoto
##88
Toma
raksturu
cietušajiem
pārdošanu
pretiniekiem
kasē
Dažā
Mamma
Līgatnes
laikmeta
ekipāža
steidz
sācies
Rezultāt
skaidru
priekšstatu
lielos
##gor
##mest
##ish
stils
terapijas
Sun
##gel
stāstus
##onija
būtību
zaudējot
Dem
aktivitāti
##rika
Drīz
##gaidīt
meklētājiem
nākamnedēļ
##biedri
##vārdu
inovāciju
vini
zīmols
atklātu
Russia
##EV
Uģis
##laiku
iepazīstināja
kritiku
grim
aktuālo
##tiņas
1,7
laicīgi
sastap
redzes
##leg
meklēšanas
zemākā
Kup
personību
īstenošana
Bern
iecienī
pārkāpt
fināla
neizmanto
ABC
vienkāršs
Teātra
tipi
leg
dzert
my
smilšu
iesil
pievienoja
Babītes
vecmāmiņa
minūti
Daina
##erv
sniegums
protokols
individuālo
skrējienā
ordeņa
##cha
faktoriem
sum
sadarbojoties
nebeidz
atzinis
##inter
comp
normatīv
jābrauc
risināšanā
Starptautisko
##stājoties
brāļi
uzmanīgi
Slam
Reg
publicēta
play
latvija
kods
braukšanu
pārkāpumus
investoriem
Sacensības
spāņu
Mēness
kilogramiem
stratēģija
##ņēmusi
aizņēm
ZS
piedzima
aizkavē
nopirk
iebruk
velk
pieejamības
komplekss
rakstus
procedūra
pretendenti
filiālē
kolektīvā
izteikta
mammai
uzņemšanu
zinātnieku
signālu
paudis
balsojumā
NAV
mājinieku
uzklausīt
bla
atbalstītāji
##riek
Frei
iekārtot
##rināt
##lādēt
Tatjana
pirmizrādi
##enī
ieguvums
##ālie
trasi
dzīvoju
##ols
veicināšanas
klientam
Bak
##aukst
##ūna
##LO
dodot
restorānā
vilciens
platforma
cietis
piešķirti
draudiem
Kru
konta
nesanāk
teksta
masas
izpildītāja
noraidīja
čeh
RB
protesta
Starptautiskajā
mākslinieces
parametr
pārliecināt
##tērē
Zv
emocijām
sēt
inspekcijas
līnijā
mūziķiem
sēdēt
ciklu
##tiskās
aktiera
pārvaldi
koncentrē
##inājuši
ārste
aparātu
reta
tiešo
mācībās
Izmanto
tal
##04.
slodzes
logo
Rundāles
pieaugusi
pieņems
stādu
##mag
dienvidos
attāl
##rūgt
šovs
nodarbību
atņemšana
sil
ierobežojumu
izzināt
##draud
motociklu
administrācija
netrūkst
nelieto
Nodokļu
##med
##etēm
struktūrā
ierosinā
dzīvesvietas
Rī
plaukst
##iņās
pienākumiem
##pūt
izjūtu
kompensē
##šūn
rajonos
mēbeles
Flor
gaišā
stabilu
veidotu
mikrouzņēmumu
garantiju
Edgara
pieņemto
##lj
Bērniem
Zemnieku
##dele
šaut
##ējuma
ģenerāl
ātra
krāso
##49
prēmiju
krāšņu
realitāte
Muitas
traģēdijas
##pend
Nereti
saucam
Viesturs
Ceram
Fre
##fici
##pole
mērķtiecīg
avotiem
##lieto
pulcējās
precīza
nokrišņi
Sap
spēlējot
ikmēneša
##01.
kosmētikas
silti
CO
ņemam
jaunākais
audu
##dari
sadarbojas
Krišjāņa
skaists
cūkas
Ken
māmiņa
##mens
Zīmīgi
piedalītos
brīvprātīgo
##rok
militāra
Nīderlandē
ansambļa
daļās
estrādes
pienācis
nosauca
veidotāji
serve
##rog
pierakst
daudzos
nulles
##tehnika
ziema
##zona
kandidatūru
##gabal
##rūc
##anda
##ogo
iesaku
atspoguļot
Kādā
##bār
Cha
Brauc
##rap
ekspluatācijā
attīr
##AND
##žēl
izveidojot
PRO
bremzē
uzbrukums
traucējumu
##smu
simtgadei
##dir
##īgākais
duets
nodevas
Jon
dokumenta
Kaspara
##sit
##nel
Bio
bankai
interesents
bioloģisk
##lītes
##ceļa
##disk
remont
sab
līga
atzinusi
slodze
vaļ
##tikā
efekts
##naud
Liels
tēvi
ignorē
1,3
trolejbus
zelt
##rina
izstrādē
dzel
noslēdzot
pretim
kāzas
līdzjutēju
##cy
hi
matemātikas
##ekonom
##kļ
īsa
Kādi
only
Liepiņa
Sarkan
grāmatvedības
##ford
##liņ
KUR
redzējumu
netiktu
TĀ
skate
uzvedību
izslēdz
360
piemērošanu
mudina
laivu
māca
sveša
saimniecisko
loģiski
pārstāvi
mēnesis
grāv
iestājas
deviņus
speciālo
##zemi
izturīg
likumdošanas
Samoilovs
čempionātos
līkum
saglabāsies
forums
Ēd
##ījumu
atsakās
žurnāliste
pasūt
siltu
noziegumiem
##vaļ
jāmaina
slēgts
Rod
segumu
paka
ilgums
noslēpumu
##unda
##EG
karstu
pag
pasūtījumu
##car
izveidošana
pašvaldībās
Karl
imigrācija
Pieaug
skaidra
meistars
##hin
exp
zinātniski
aizstāj
dizains
NEPLP
bibliotēku
noderīga
kaimiņvalstī
Bab
pretinieki
priekšvēlēšanu
samazināsies
##īgāka
Guntars
pild
negatīvu
renovācija
procesiem
deficītu
neizšķirti
pagriez
urīn
zīmju
individuālā
Panorāma
pārtrauc
Dzintara
apskate
ierašanās
skolēnus
##rakstīja
parāds
triecien
##līv
sajauc
ieguldījums
Olaines
ej
nonāks
##vet
Talsos
patērē
piederošā
maksājuma
Veicot
##mina
##atīvā
Rom
restorāns
Jēkaba
Kanādā
Toyota
ilgtspējīga
##hop
Kalnciema
debatē
Krū
##likumā
see
markas
riepas
dzimtā
vokālā
##raudzīj
Com
##beidz
sajut
##kalni
veikšanas
##ht
vienkāršu
inficēt
##slēgt
profilakses
##65
uztaisīt
bloka
years
pirmajam
autovadītāji
Salīdzinājum
astoto
Savulaik
##ūl
Sanktpēterburga
psiho
aprīkojuma
privātās
TU
##dere
skats
normālu
ciešāk
investē
nozarēm
sveši
reģionālajā
Lielisk
SE
transports
Atšķirībā
Šmēdiņš
balsoja
mežos
aizgāju
suņa
##riņu
##rādījusi
sestdienā
##66
Hokeja
redzot
##tūrā
kompānijām
sakars
Novada
Ziemassvētkos
procesus
like
samazinājumu
maksājumiem
iedarbība
Konkursā
stiprā
slēpošanas
##pal
akcijām
arodbiedrības
trūkuma
Nekas
##GU
nere
##darbībā
atbalstām
##oloģiskā
šķietami
0,4
auksta
VNĪ
koncertzāle
ballīte
vadītājas
teiktu
##85
##ojam
Vanaga
rādītājus
mēģinājums
trīsdesmit
Klo
##oņi
Pēt
neinteresē
ielej
diagnostika
Spo
jāturpina
plānoti
ekspertiem
##bāz
interjera
##smērē
lasīju
kūrort
ētikas
Ilmārs
pamatskola
Augulis
nomierin
prezentācijas
izej
starpību
riski
uzņēmējus
koncerna
ienes
pr
novest
4000
##ozo
Opel
labāks
paceļ
##trauc
kompleksu
miers
!?
opera
konflikts
Darbs
CS
izmaksās
koncentrācija
Nikola
vingr
izturēt
velobraucien
noņemt
izveidei
uzvedības
platformas
amatnieku
simptomi
tendenci
1989.
ūdenstilp
pabeidz
apstrīdēt
##ļot
##liedz
klubi
##varu
Sec
##nomi
bojājumus
pārtika
##nāca
reisu
##kšķi
VARAM
laikmetīgās
gaidāmas
iebilst
ieroci
divpadsmit
##diju
Tehnisk
1,6
Ķīnu
konstrukcijas
līdzfinansējums
panākta
lēns
atpaliek
should
intervijas
kliedz
fasādes
siltums
aicinās
Alepo
zinātnē
patstāvīg
skaidrā
siena
akti
zvejas
interviju
Lietu
krūts
Gl
Lik
izskatījās
pārmērīg
apmierināt
##tības
jāgaida
Grieķija
##nīti
rīkotajā
bāzi
##niku
nelieli
liktenis
minerāl
Peter
iedot
##āļi
##98
##drukā
tālāko
cīņai
Īrijā
share
balstās
Len
piepildīj
##rādīt
sviestu
ģeo
##rīvē
regulator
galvenajā
##jošie
LS
torni
ārstēšanu
ārējā
palīgs
gad
brū
augstāku
notiktu
referendumu
##vadīt
spilgti
Skolēni
rūpnīca
pārējos
brīnumu
saziņa
bērnudārzu
##īgākā
Mini
komentārs
vislielāko
vadošo
atrodami
Mer
our
##gāju
joma
sports
tir
Purv
Ikviens
##plaš
nopietns
mašīnā
##jan
koncepcija
neitrāl
VW
pilnvērtīgi
Sko
iedvesmot
Apgād
##lf
apmaiņa
Kontinentālās
##LĪ
piederošo
Donalds
TM
profesionāļi
ierobežojumus
mon
izmest
Roberta
##niecēm
##vok
Graud
Vari
AL
##prā
jēgas
investori
izpaužas
radušās
teiks
some
Krei
biedrībā
bēgļi
ierosinājumu
draft
minētajiem
Slav
skaistas
atrodams
##JAS
Junior
atlaidi
absolventi
aprites
Nekad
nodošanu
Dzim
##lāciju
bloķēt
izjūta
nemāk
dien
policistiem
reģistrēto
juridiskās
NVO
Dir
polit
##gale
pierādījumi
interesantas
##ējušies
avio
Strādā
##gh
Lieta
Partija
senāk
gadījumus
balto
komentāru
aizved
Ok
ātru
pārsteidza
BTA
skatītājus
##77
kvartet
varot
##redzam
guvu
##67
protokolu
group
Matīss
perspektīv
spiediena
galerijā
apstrādāt
augšu
aizvadīts
aizdevuma
brīvajā
stāvu
lietošanai
ziņām
##eram
palīgā
pasniegšanas
##onā
Dokument
Mobil
ME
uzbrucēji
lietošanā
maska
##būt
aprīkot
Iespēja
iestājās
sniedzēju
naudā
##lāb
##ehn
spēlējis
institūts
Vaicāt
##inājās
##šķēl
grupējuma
darījumi
iestudēt
Dziesma
sabojāt
meli
šaubu
vilciena
autobusi
Vecā
pilni
cikls
bro
kolekciju
##II
sodi
Burtnieku
##dziņu
Dim
kvalifikācijā
žurnālu
Ralfs
##vienība
Dis
māsu
neprot
lugas
US
##mol
sabiedroto
##teru
dalīj
būvniecībai
jāatceras
##spīd
Kazahstānas
##īk
##mena
##rauga
##ester
struktūra
reaģēt
kompānijai
stiep
##41
Likums
mērci
konferenci
iepakojuma
nācis
kauns
uzstādīšana
apziņa
emociju
##gādā
palielināšanu
valdē
tvert
bruģ
skaisto
Ukraina
##lidoja
izmeklēt
pamatlaika
60.
fu
svinību
Aptuveni
negadījumā
Šveicē
lidojuma
mazos
##ologa
apkārtnes
izgāz
sagatavošana
Turpinājumā
Iekš
atbalstītājiem
support
skrējiens
industrijas
##STA
aktieriem
ideāli
vērtīgu
apkārtējā
ekstrēm
turpinājās
pagājušās
ču
obligātās
saista
kvadrātmetr
Bē
Lomās
uzņēmēja
##ciems
vajadzīgas
iestādei
veel
tirdzniecībā
##ped
Bergmanis
ceturkšņa
florbola
Valga
##tiks
vadošais
lasa
##kūp
valdi
##cina
##jošās
##pūš
70.
planētas
vienāda
##īšiem
##stādīju
aizliegta
Zināt
strādājoš
Pulksten
meklēšanā
sniegtu
organismu
prognoze
##NĪ
mazajā
##ller
tēls
##ēc
Kopējā
Drei
sportisk
Sanita
companies
##eles
brīvdienas
zari
veikuši
izrādēm
pilnīgu
grāmatām
##viņa
##pin
Valda
Main
Lē
neizšķirtu
miljona
##pert
len
svarīgas
facto
Balva
nostāja
##GS
Just
likvidē
izp
draudu
Th
apzinās
##rka
sadalīj
mode
Of
karo
Profesionāl
narkotiku
aizliegums
ierobežotu
ievērojama
atmosfēru
iepirkšanās
mor
lauksaimniekiem
referendumā
titula
Mos
stabilitāte
panākot
radīts
##darbu
Skaties
Ideja
algām
noformēt
##mara
rīdzinieku
piekļuvi
kaimiņiem
klīniskās
tiesnesis
mest
Horvātija
mājsaimniecību
veidošanos
##wn
partner
loga
autovadītāja
attēlot
##īze
kriminālatbild
konceptu
London
balsojums
organis
kritien
olimp
mūsējie
balsojuma
Viļņas
bumbām
politiskajā
##ping
daru
aptiekā
vērtējums
Droši
aprēķina
sasnieguši
vokāli
##con
##we
Viļņā
pilnvaras
personīgo
tālmetienu
Austrālijā
samazināšanu
Fel
forši
##68
Inčukalna
izmešu
leģendār
Koncert
tuviniekiem
Zāl
country
RD
Somija
klientus
šokē
Zeme
izvērst
blok
Saskaņas
##EC
##tvēra
##veido
hit
Prieks
Rita
place
##mugur
koordinatore
Sarmīte
##ģiskā
filmām
##sponsor
biļeti
mīlu
iest
mākoņu
gāze
atļāv
veicināšanai
struktūras
atšķirīga
nepilna
aizvadīta
padomu
sēnes
sastopama
veidotā
papildinās
izpratnē
piekļuve
žurnāls
Austrijā
Tukumā
Stro
##āža
baidās
kolekcija
##organizē
Otro
ievies
Jaungada
efektivitātes
maksās
##EP
izdarījis
saites
##lācija
spilven
##malas
gaidīja
elementu
galēj
veidošana
izvietoti
radies
Ant
##truk
TE
iegādājās
##nal
teroristi
##lauz
##hron
sēklu
kompozīcijas
dzimuši
ieskatu
jūtos
maksājumi
dvēseles
##NES
##vidē
Dzelzceļa
Laimdota
Vārds
##nieši
identificē
Beļģijā
sabalansēt
izjust
patērēt
Fer
dzīvokļi
saistītu
##?
##dīja
lauzt
##vera
teikto
##onam
##rakstā
##lauzt
Ost
atrašan
atsevišķās
palikšanu
eksistē
kvalitatīva
mīksti
##jamas
##ojums
##10.
Serbija
burtiski
svinēs
Muzeju
Māri
uzturēšanu
dārzeņus
piešķiršanas
Ierodoties
aptauju
piesaista
sagaidīja
univers
##doma
iekaro
partijā
uzņēma
atklājot
Visticamāk
seminārs
##lig
One
Izmaiņas
tauk
doktora
##steidz
##lietu
##vāra
gaidīti
padarot
humān
atvēršanas
##velt
Tartu
##hard
kilogramus
##eši
katastrofa
ierobežojumiem
##ājā
limit
skaidrība
Okt
##uļu
Deivids
reformām
Atbalsta
tiešsaistē
reputācija
##īst
##utu
normatīvaj
mākslīg
##niek
pareizā
Laur
##brīd
pazūd
kurp
beigt
sporto
rindu
##ntu
##licis
kalendāra
karjera
Hans
pipari
pec
pozitīvs
kājās
Pierīgas
pameta
pakāpes
##kola
tīrā
##āde
smaidu
reform
iekšienē
Sor
Viļakas
Dau
Skan
meistaru
autoriem
anonīm
zinātniska
pēcspēles
nosauc
pielietot
##struktur
##tāj
sals
laikrakstam
aprūpei
kabatā
##ičs
Blue
drošs
nožēlo
resursiem
##āro
mierā
sešās
veiksmīgs
Grīn
##76
Arēnā
piespēli
slogu
lekciju
##ķiem
nolīg
klātbūtne
##ngs
##cēlu
izpēti
Iecavas
Šādas
vienībā
nesteidz
izveidotā
##ālajā
sekundēs
Klau
##pūst
ieguldīj
iespējamos
##eviča
##tric
komisijai
izlemt
sc
##ions
tumšā
##blo
##RAS
Alfa
##rova
galv
balsošana
##nītis
##tml
regula
##gām
tehnoloģija
Nodarbinātības
struktūrvienība
viceprezidents
saimniekiem
##pla
uzlabojumi
##meri
valdošā
kārtām
geimā
##spēle
daudzuma
Holivuda
temperatūru
misija
daļām
skaidras
pārspēt
zaudējis
novembri
gudra
pieauguša
kanāls
##cēt
vāji
saruka
deport
minister
##pot
pieslēgt
##dzemdē
Šleser
patiesu
aizvest
##pr
##pers
pavadīju
Bertāns
publicēts
iepazīstinās
godprātīg
##liņu
##SU
pārskats
Parād
##43
##uļo
Režisors
##ban
Palace
ceturtdienas
musulmaņu
Iedzīvotāji
##šūt
told
deklarē
izgudro
Joprojām
plik
skrējiena
veicinās
pilnvaru
Pilsēt
aprēķinu
numura
sūtījumu
šitā
atmaksā
Velo
karavīriem
kungi
##mainīt
atklāšanā
tiesnešu
et
jauki
parakstīj
piemēroja
vērtēšanas
bojāt
siltā
Internet
##pērk
##reģistrē
dokumentā
iekasē
apliecinājums
parādība
pircējiem
sejā
##plūdi
pielikt
##oza
End
##rator
Japānā
##arda
skaitīt
lasi
Īrijas
Likum
iespaido
nežēlīg
sadursme
##org
##inis
##86
tehniska
Instagram
Rozentāla
kilometri
##post
Mācību
sarucis
vienībām
atmaksāt
scenāriju
Bru
štatā
cienīt
nedzīvo
##OP
nonākusi
##64
saistīto
stabilitāti
ģimnāzijā
Pirmie
izvēlēto
remontdarbu
pievienoto
licences
pamatota
##aņ
##SKA
Filip
##ise
laikrakstu
norādīta
Noteikumu
##ākajā
LAD
Bū
domei
##imp
HIV
seja
cietuma
lietotāja
Beidzot
Positivus
##pit
##ērija
ievadā
piekrist
paradīzes
ielaist
Pasaulē
pētnieks
##ītos
veseli
##garšo
rēķinu
Aizputes
ierīko
##RM
ejam
##vies
gaidāmā
ieguvumu
Buk
mīlas
atcelšanu
##ušajiem
##rz
Otrais
##3,4
reālu
##pīt
Vašingtona
mājai
normām
premjerministra
Elita
rīkotā
atrasti
apkalpot
fabrika
jebkādu
dokumentālā
Kle
Daugava
atsauksmes
Pieņemt
atļauja
komersantu
augstvērtīg
dejot
vairākumu
lieg
desmito
nesniedz
##IG
riskiem
Bauskā
dēla
##veselības
Svar
##berg
augstākais
Tehniskās
īstenojot
Zo
elpu
personāls
seku
darbiniekam
pensija
##fri
iesniegti
centriem
sign
##oloģiju
direktoru
materiālo
jūtama
meistari
atvieglojumu
uzvarētājiem
vēlu
nespēs
United
filiāle
TO
domās
gaidīs
##burgas
##ējumā
vārtsargu
LNNK
ēkai
nolūkā
motivācija
##māte
##fil
slavena
##enēm
##args
nedroš
fiksē
##SP
Kai
inspekcija
Lielu
līk
skaistuma
Kādreiz
laulāt
Gatavo
vietējos
izlieto
atlikušo
tv
jāpievērš
ieguvējs
take
##klo
tiekoties
Cilvēka
Evita
##PS
apļa
prasīja
Izrāde
##ņēma
pasākumam
Sha
iznāca
draudzība
mutes
Vitālijs
Grobiņas
pārkāpšanu
apkopotā
izvaro
##glab
Plat
transportā
devēja
strādājam
Pen
##reģistr
izvēlēts
temperatūras
##IET
vaino
konkurentu
pārliecinošu
pārvietošanās
strauja
##vor
##rov
ķiploku
Zviedriju
bīstamu
koncertus
Jūl
konkursi
ievainot
Tan
stipru
down
diplomu
##sūtīju
dzirdējis
change
ekonomiska
itin
##PO
Nākamai
dzīvokļiem
Zolitūdes
skaņdarbi
Roze
jebkuram
rest
izvirzīja
futbolā
veselīgi
piekļūt
saprata
pieņēm
Šai
pazemo
esošos
papīru
jaunumi
Lind
redzi
sakārtošana
paradumu
saiet
##rakstīju
lidojumu
Artūra
apdraudējumu
tiesiska
jūtu
##kāns
atpazīt
22.00
tradicionālās
##cle
cenā
net
dzīvnieka
rītdien
pase
zādzību
kompensēt
siltumu
Aldis
##rant
##zinām
galerija
vijol
Kul
foruma
Kin
nospēlēt
dalījās
lietderības
asfalta
sviesta
Ministry
pusdienas
##imene
lasītājiem
##NIS
trauksmes
satiksmē
VAI
spēcīgākā
klausītāju
sarūpēt
Nedaudz
apģērbs
##vilci
priekšmetus
gadījuma
vainīgi
autovadītājiem
brigādes
Slimīb
iecelt
increase
kriev
hand
interaktīv
izsludināts
popularitāte
audio
##72
pārbauda
likumsargi
datumu
maksātāja
kopienas
visnotaļ
riepu
klāsts
vajadzību
##fī
ticēt
Pit
saglabātu
Nar
personāl
sadursmes
##krāt
Barons
apdrošināšana
iztērēt
iesūtīt
social
nokavē
##ipa
Māc
solījumu
KAS
Kremļa
hokejists
sniegšanas
pagātnē
speciālu
atslēgas
Mē
dalībvalsts
##male
noteikšanu
biedra
VAR
pārējām
žāvēt
Ig
##CA
rezervē
nodibināt
strādājošie
bad
##nīcu
neiro
šūpo
paver
##96
vietnes
galamērķi
kūlas
dokumentos
dotu
ezerā
Vislabāk
krāj
##slepen
stipendiju
Invest
viennozīmīgi
monētas
uzglabāšanas
aktuāls
puisi
operator
neraugoties
rekonstruēt
smago
Liepa
tiesisko
prese
realitātes
Bol
uzskaites
Jēkabs
deviņu
Ukrainu
pienākumi
pasargā
centrālās
junior
##šķu
Ministrija
Jansone
apēd
##cīti
personā
cenšos
zarnu
iespējamās
autosport
Gadījum
izsaukumiem
tuva
atkritumus
diplomāti
Seš
mežs
Por
pārziņā
risinājuma
apkārtni
##itātē
moc
nācija
tilts
tūkstoti
Sakar
Lielbritāniju
##rakstu
Forum
##cl
nopērkam
profesore
Lelde
sāpēm
apsūdzēta
Vilnis
piloti
maksātājiem
lād
Tir
arhitekts
Lauk
īslaicīgi
maniem
groza
roze
sabojā
Koz
Col
īpašumiem
Statoil
humora
tiklīdz
##TĀ
stabi
internetu
##čen
uzskatāma
labot
th
bezdarbnieku
kilogramu
##GO
savstarpējās
apmierināti
Dag
Cilvēktiesību
negatīvā
apmierināts
vārdos
pamatprincip
piektais
lasām
pusei
hidro
##AC
##atzīmē
Dānijā
growth
piesaistot
monētu
labākajām
lasīšana
braucējs
189
universitāte
##ējušas
akcentē
##LĒ
ob
draudzē
būšu
Ziemassvētkiem
##pastā
izteicies
##skābe
bilance
slavē
došanās
mū
##krievi
sociālie
Bon
drāma
patent
saliedēt
apguvi
##HA
notiekošajā
Mūsdienu
##6,5
noķert
priekšmeti
izceļas
inform
##īnā
farmācijas
tel
pension
soļus
zemā
taisnīgu
when
ieņēmumiem
konkurētspējas
triumfē
pastāvīgā
Eiropai
provide
dalībniece
tehniski
1,8
Bag
piekrītu
padarītu
sagatavota
narkotisko
##auj
Mur
zinātnisko
##triec
Eko
zeltu
##keviča
Daugav
##LU
pārvietoties
##dami
iemācīt
170
piemeklē
brauks
Jāzepa
koeficientu
laureāti
##vēro
seksu
Maskava
##egl
laukumi
##elli
##59
astoņām
Emīls
Rut
uzkrājumu
Septiņ
Līva
uzcelt
9.00
šam
pircēji
##kin
need
Klaus
Taur
labiem
MTB
amerikāņi
lut
##roc
mainīsies
labus
Šosezon
krūti
roman
pārdošana
tūristi
Trešajā
pamanām
dzēr
Dun
Cīrule
izpētīt
##lek
apr
##UM
kalendārā
Aspazijas
##win
Rūta
##ness
eksportē
panāktu
bojājumu
Laikā
##kovu
robežai
piedāvājumus
##bis
rep
##taigā
Oļegs
priecīgs
##vard
Carnikavas
Pasažieru
Ziv
atdevi
##ījies
##redzēt
##zan
pieturas
sarkana
konstrukciju
dzīvesvietu
meitenei
Din
Robež
situācijām
Gold
uzbūvē
privat
Sala
##pazīst
Reirs
negribu
Kanāda
Viņaprāt
igauņi
##uarter
pareizo
##niete
drēbes
domāšanu
koridor
##gina
apsaimnieko
##jošas
sanāksmes
jātiek
##tisku
vieglo
##grib
##tradicionāl
Sek
Lan
cēlie
otrdienas
apliecību
ieviešot
patstāvīgi
##tava
gudrāk
tiešsaistes
krau
aprūpe
vadošajiem
Starptautiskais
hu
ieliek
apmeklējuma
##-20
vākt
praktisku
##lauku
kokiem
narko
##ani
Talsi
salātu
iepriekšēja
rozā
Krav
Dūklavs
iekārta
traucēt
##ētāja
godalgot
izaugsmei
Desmit
taur
sāktu
Portugāles
atkritumi
kaulu
atbildīgā
Attiecībā
##kreditē
UNESCO
basketbolā
prices
##gle
lieku
pārkāpums
grupējums
stūra
##ransportlīdzekļu
mediķiem
Ričards
Balodis
Aldaris
##peļ
iedz
Mod
gultā
identitāti
good
attālināt
tulkot
cerība
recepte
NMPD
radījusi
##enberga
tirgotāji
lidz
high
turnover
ziediem
klimat
sauca
##bina
##skatījos
##kult
bakalaura
sarkano
transportē
latviete
nodots
0,6
##rip
sveces
starptautiskaj
būvdarbi
Priekuļu
lauksaimnieku
neveiksmīgi
okeān
ģeogrāf
sarežģīts
Vairum
beigusies
izdota
spēcīgāka
##tiķi
pievērsties
varēju
pastāvēt
##54
jāizvēlas
trešdienas
##riga
elektrību
##UMS
kaimiņi
pareizu
veikaliem
vērtspapīru
Uguns
##AK
atņem
pārtrauk
tirdziņš
izmet
teroraktu
pamanīja
Ču
izsmalcināt
mēbeļu
nēsā
pamod
Vija
sān
rubļ
brīdināj
ierobežots
unikāls
##zīte
sanāksme
inovācijas
ēdienus
Dža
zaru
demokrāti
ražošanai
Kras
spiesta
##nakt
Organizācij
iesniegums
nedomāju
lemts
pudeles
trij
joslā
Marka
dvēseli
teorētiski
##nch
izdevumā
apmeklēs
##pak
brāzmās
Rumānija
producents
mīļā
mēģinās
sapratīs
izveidojis
atvest
ban
parlaments
##rakstījusi
nelab
aprīkojumu
LB
##mēģinā
##mū
palielināšana
FIBA
mīļo
skaņ
Atceros
jāizmanto
##ņot
jaunumiem
viegls
meeting
asa
she
Atbalsts
1940.
apgabalā
ordeni
pot
iedeg
skatos
Ēģiptes
while
dibināšanas
Piena
apmācīt
ATP
Oficiāl
vainīgs
patvērumu
akūt
uzskatāms
dibināt
augstumā
paaudžu
Prix
Rob
apvienojot
##ošanos
vecāko
##skrēja
##LIE
##šauj
dzīvesvieta
uzsāks
Tī
maize
klavier
komēdija
aktīvā
partnerības
Dor
priekšpilsēta
uzbrucēja
aplikāciju
lepojas
izdevums
ekspozīcijas
lūgums
mark
##eit
duelī
Lieto
Izrādes
diskvalifikācij
pūtēju
kārtējais
uzbrauca
Atkal
saime
piespēlēm
pārbūves
Saulkrastu
neiespējami
piesaisti
##vol
##sēdēt
stāšanās
pusmaraton
funkcija
pagājušo
rakstnieks
##mini
virzību
piedzīvojus
pašreizējais
Madrides
svārst
āra
Vakara
gas
sākām
forumā
nobalsoja
redzēsim
Krievi
##alitāti
augiem
nianses
nespēlē
nazi
##08
klasei
dabiskā
notiekošā
Izskatās
Skuj
Lor
neatliek
Rau
procesam
ķiplok
Zel
##bļ
##ities
oficiālo
Spānija
##čer
monitor
zīmējumu
vadīšanu
##cc
melna
##spārn
pietrūka
finansiālā
koledžas
neto
SPRK
vainīga
iesp
dzinēju
sētā
revolūcija
konsultatīv
##ral
saldumu
atvad
cēlonis
vajadzīgo
valstsvienība
Trampu
Nāc
Kata
Varētu
##ēze
brīvdienu
##91
apcep
norādīto
Viestura
##čuks
gaidot
Nevajag
iestāšanās
jāatzīst
ceļojums
##ual
izbaud
labiekārtot
Valstī
pastāvīga
nodarbināto
šūnas
Vecumnieku
pazemes
laboratorijas
##niešu
##ārstē
Zinu
pieturviet
Elizabete
veikumu
Tehnoloģiju
iemaksām
made
novēršanai
Galaxy
pacel
Irānas
filmēšanas
patīkama
Saeimai
Kaspersky
krimināllietā
Vasarā
##grāb
iegāde
Mēģin
##īdi
##nera
platformu
pastaiga
dārzeņi
Spartak
VIEN
kviešu
uzraudzība
ekrān
pietiks
Vajag
godināt
griezumā
filozofi
pārzin
domāšana
Tru
Tādu
##ūru
koncertē
profesija
okupant
alternatīvu
fiziskā
pulcēs
izbraukuma
iestudē
Prāta
ievērošanu
ieguvu
izdod
Aivara
##vēja
Valka
nepastāv
administratīvās
##oga
##ega
Dievam
ēkās
simbolizē
Problēma
iekārtām
rakstniece
iesaisti
varoņi
kritēriji
pedagoga
masveida
aizraut
dzeram
prēmijas
pārveidot
spējusi
Bizness
nodarījumu
ķīniešu
liep
##skais
apskati
kritiski
Vilnius
tavas
atzinība
##300
izmantošanai
grozā
Nikolajs
sportiskā
treniņ
nozīmīgas
izgāja
intensitāte
##jans
##gri
korpusa
šķirņu
uzturu
vadībai
##šifrē
instrumenta
juridiski
kampaņā
medicīnā
atom
Vladimira
autovadītājs
Del
piedāvājam
lieluma
likumiem
Grī
rekomendē
Feb
sākumam
pieteikušies
vilkt
konkrētās
Pavlov
likumus
invest
##outh
##off
attīsta
pagarinājumā
iepirkt
ezeru
logi
izveides
##57
Biedrības
##nīc
Tic
apceļo
krimināllieta
iespaids
romānu
eglīte
migla
dubulto
apmācībā
aizraujoša
Marijas
Slovēnija
izveidē
dzeju
##SE
raga
dzīvesvietā
ierastā
iesniegšana
##69
ziedus
##mīļo
lūdzam
struktūrfondu
pasi
speciālistus
ZRP
krietn
19:00
kaujā
Persona
terapija
##vīru
sadaļa
trešdaļa
pārraid
ultra
ietekmēs
Filips
negaid
sesija
federāl
koksnes
signāls
Ēka
##lift
neatklāj
dzērieniem
organizēšanā
Rēzekne
##61
services
vērtējot
sekmēt
##kup
naida
##AF
organizatoru
glāze
piestāt
tālākai
aktuāli
izdevuma
bir
atsevišķa
sild
dolāriem
arābu
pol
nedara
sacentās
skatījumā
kļuvušas
piemērotas
stāstiem
Rubene
upe
Studij
nolemj
Tr
vismazāk
kaimiņ
Russian
Rudens
pārcēlās
pavērs
atbildīgo
kuģis
puķes
iesākto
apmaiņu
shēmas
konstatētas
kapi
licenci
savāc
Enerģētikas
maisi
apmeklējot
neliek
vardarbīg
ciemi
ieraksta
Pieteikšanās
čempioniem
facebook
Iedzīvotāju
braucēju
aplī
ieturēt
##ināts
uzrunāja
##ējusies
any
Times
īstenots
neskar
mēģināju
devusi
Lursoft
komunikācija
nenotiks
1988.
##elle
aptur
Tiks
Post
Turpinot
varonis
Mihails
piesardzīgi
Konkurss
nolikums
palielinātu
Sports
Vītol
oficiāla
##PP
Seko
rīku
##bj
pārsniegšanu
Austr
vērs
mājiniekiem
apēst
nolaid
##lain
Situācija
trešdaļā
Skandināvijas
solisti
##2.1.
klīnikā
rosinā
nominācija
topošaj
lapām
materiālā
Fri
Privāt
benzīna
Imp
muzikāli
18.30
bauda
patieso
nolūkos
Valde
iepērk
organizēšanu
pastiprināt
Vecrīgā
vērtēs
Ali
novērtējums
Rīgai
Leg
dziedātāji
mazbērn
LOK
ieviešanai
Tel
izstrādāti
Galvenās
pozitīvo
operācijā
##FI
izdevniecība
kaujinieku
lietotājs
kaķis
rūpnīcā
eksportu
konkurēt
nokārto
##labo
talkā
direktīva
emocionāla
problem
saeima
konferenču
2014.-
##runa
cietušā
Juridiskās
##vērš
aktuālāk
modernizācija
##ticība
dzimtajā
brīdinājumu
muižā
palielināsies
Vecāki
samazin
Meistar
##manu
real
zālēm
Vienības
jubilejā
redaktors
sasniegšanai
baigi
vieglatlētikas
Metta
Politiķi
220
kolhoz
1941.
parāde
jāspēj
smalki
Mīl
krēm
sapulces
##tuvi
ugunsgrēka
Pilsonība
Nakts
strīdu
Krišjānis
ķīmijas
##saldē
nelikumīgi
uzvarot
manī
cilvēk
##rēķini
speciālā
uzvarējis
smej
ieved
mugurā
dizain
##ENT
##kritīs
pasludināt
pārdevēja
Sarkanā
##BU
paziņots
telefoni
Kron
redaktore
modeļiem
Labākā
publicēti
##gail
##73
pump
šoferis
ierīcēm
between
Bērns
nogāz
cigaretes
Kre
Renārs
saskara
##īsi
aģentūrā
daudzbērnu
mirklī
##53
osta
izvest
Chi
ārstēt
eko
Džen
digitālo
Ginta
halle
līgava
draudzīgu
Ventspili
Hil
toni
mutē
katalog
orgānu
##rāt
Konkurences
##ious
sagatavošanu
lauz
kosmosa
kopējie
Rak
zilā
aukstu
deficīts
izbūvi
kurdu
augi
devējiem
pievienojot
##BI
##chi
akadēmija
Jāņem
paņēmienu
Atbilde
pirts
fiziskām
Saskaņa
sag
iemūžināt
##lc
nepamatoti
Gundars
izplatīšana
nodarbībām
apsvērumu
##medi
Tīr
##mant
Gaismas
Maksim
plecu
fund
šķist
##63
pavasaris
gandarījums
gaiši
lieti
Maksātnespējas
dabiski
Citā
ziņojuma
kub
##IB
pierast
Opera
Rem
paiet
RIGA
Jautāt
##56
670
Tak
balvām
piedāvātā
ABLV
ciemā
neierast
Prezidents
intensīvi
vēstniecībā
dzimumu
##OM
ieslēgt
##gān
##mod
tiešraide
tabula
Tolaik
tilp
Sarunā
Barcelona
pieteikums
laulībā
izplatība
##cirst
##ošajā
Eirovīzijas
grieķu
Policijas
galvenajām
Olimpisko
ieskaitē
centīsies
obligātā
burkānu
jāskatās
PRET
apkopoti
folk
Irākā
##ŠI
attīstīšana
mākslinieciskā
impērijas
fantāzija
daudzveidību
izvirzījā
vietnieka
izplatīta
Nāk
iepriecināt
Madonā
Čehija
visdrīzāk
##vidu
sveica
pazuda
Dome
princi
minētajām
Sintija
izglītībai
piezīmes
##mail
##krāsa
##fort
Ziemassvētki
##profil
Kozlovskis
ievērojamā
##trop
##brāl
##ick
līdzfinansējuma
regulēšanas
##pusi
##īgāko
teksts
tēja
komplektu
reakciju
Smiltenē
Dzīvnieku
piedāvāti
##ĪBAS
raža
silts
gatavojoties
elites
dzīvniekus
LFF
varoņu
##evics
savējo
zemo
datubāzē
uzliesmo
ierindoj
##loka
##monstr
spoguļ
##kni
dalībvalstīs
Centrs
izkl
DJ
deb
nogādā
dzērienus
kapacitāte
##lande
Baumanis
pētījumiem
##lāp
sociālais
Sputnik
projektēšana
sēkl
skaties
sakām
##funk
kopēja
izrakstīt
nākamajam
##ciņš
pamatus
atskat
celšana
##4,4
debesīs
piemineklis
pārtrauca
##gate
nomaiņa
augsnes
labākajā
Saeimu
godā
modeļi
##manim
iebūvēt
sasniegts
uzturas
piedāvājumi
pārvaldnieks
zinot
akcentēja
iepazīšanās
ukraiņu
Dī
matus
ieņēmumus
##darbojas
##62
Medicīnas
being
##lement
treniņiem
mūžā
apavu
Administratīvo
jumtu
ministres
jāizvērtē
pēdējie
##uļa
absolventu
zemniekiem
būtība
Laila
meklētāji
kopprodukta
NĪN
staigāt
vairākumā
Dažkārt
saldēt
rīkos
Kurzeme
firm
armijā
izlīdzināt
brīdināja
atklājis
topošā
diben
ierīce
Kristus
bērnudārzā
rakstnieka
spī
Miera
##kauj
Muzikāl
Warriors
##but
##šņa
Baltija
rotas
##šaut
galīgajā
0,7
Maijs
##solīt
jauda
Neiz
dzimtenē
sho
maks
Dažas
seriālā
karaliene
Kultūr
izpausties
koordinē
Klientu
DI
jārunā
agrā
septiņām
##ška
apvērsuma
krēmu
##viņš
plašāka
uzbrucēju
nāvē
##šņu
Neste
dāvā
iekār
dārzeņiem
sha
spējis
##virzīj
##ušajā
##niskā
##rast
motivē
Pļaviņu
skaitli
Mārcis
Savas
interesentu
populāri
iebildumu
apspēlēja
mono
sept
leģendārā
auguma
Baltkrievija
saskaņošana
nemainīsies
Sirds
Cilvēkiem
##stumt
iestrādāt
Ozolnieku
piecpadsmit
nogalināj
##sūdzēt
##jušais
Aicin
##udi
Pārgauja
vizuālo
##ode
izejvielu
Dru
raksturs
##hil
čempionātam
Iepirkumu
medu
avīzes
potenciāla
bijušie
spējīgi
kritiķi
##īto
##krāso
paredzētās
celta
##ort
augļi
Mediju
procentus
vislielākā
salīdzinām
sto
##sardze
investment
saņemšanu
dzen
simbolu
jēgu
pieminekli
uzplauk
potenciālaj
izcīņa
##200
##ošām
Spēk
organismam
10:00
koalīcija
Black
algot
##flo
matiem
šaus
Vasar
patiesību
Gulbenē
saist
putra
vērtīga
apsver
Mača
sastāvdaļu
##braukusi
Rotko
kūpinā
motivāciju
istabu
Elizabetes
radīti
##fināl
##-2
nodrošinājuma
operatīvi
ienāca
uzņemta
grafiku
džihādistu
aicinājums
##sargi
vietēja
Jev
##rez
skolotājas
Sievietes
savaino
RS
ēdieniem
ministriem
atgūšana
Franciju
palaid
Sadarbība
##RC
Bulgārija
izsludina
pleca
##beli
Eduards
patversmē
jumts
apvidus
ārstēšana
##ēriju
##84
servisu
invaliditāte
šķiedra
Vēstures
prognozējam
iep
##turējās
Turība
pusaudžu
aizsargājamo
Dzīv
gredzen
Grāmata
##TB
konsolidēt
neredzam
veltīti
Guna
dialogu
ekskursijas
gaume
piedalījusies
epizode
##lona
vairākuma
Sab
##transport
Nepa
salīdzināj
gadsimtu
stafetē
PĀR
Ķir
Signe
Ein
atceļ
products
Aus
##AP
redzēs
lūko
atsaucību
arhitektu
gājienu
svinīg
bagāts
radījuši
likumprojekts
##malā
Caur
ekspozīcija
iedzīvotāja
personiskā
aicinājuma
Lej
samita
izrāv
uzvarējusi
##nča
three
spir
redzamas
Paši
jāmācās
energoresursu
##trē
LATVIJAS
Indijā
atbalstītu
Pētījums
##karu
##ries
atpūtai
izdara
BET
patur
##ģenē
show
precīzs
apgāz
tautības
kārtai
vīzija
##shana
atbildīgās
40.
##IF
uzbrukumi
lēš
##oloģisko
fakultātē
lejā
jautāja
Pāris
dabiska
atsevišķiem
pārrunātu
DE
##deri
Mazo
braucienos
amerikāni
zemnieki
pilsonība
piešķirto
sita
paralēl
01
Kļav
tiesvedība
dīvān
novēršanu
ikgadēj
principus
Cīņa
Belēviča
gods
sapni
atskaņot
labklājību
kabatas
##ward
romāna
My
##omas
##1.2.
izcīnījis
##78
slimnīcām
īpašumus
vīram
krājuma
Amerikāņu
iedvesmu
SP
domāšanas
##džer
aizpild
nolēmu
nepiekrīt
##inoties
Neat
pirkumu
spējīgs
##zam
samazinājusies
trade
birokrāt
dibinātājs
##klē
21.00
pabeidza
kungu
pašām
##inājumi
##oloģ
nāve
PS
JĀ
sarūpē
Vieta
noskaņa
principā
ezers
dziļa
dzirnav
parādā
Vik
futbolists
sasniegums
sekojot
iekļūst
savāca
referendums
centrālā
pieļaujama
Četr
Varu
Marina
Porziņģa
realitātē
mazuļu
##KAS
sodī
smēķēt
vērtīgāk
ceturtdaļfināla
gatavas
braukā
##LC
iemeslus
talants
cieņa
tavi
Ingus
motocikli
procentpunktiem
kafija
##ekcija
hip
reģionālaj
mēģinot
sfērā
draudzīgi
Daniels
aprīkota
planšetdator
iekļaujot
pāra
apsaimniekošanu
##here
bilde
atklātajā
liegt
lauksaimniecībā
padomnieks
##3,8
##gg
Okupācijas
##07.
nevarēju
pirmajai
multi
week
##PU
neredzēt
iesaist
##čiem
##dzimt
profesionāļiem
Uzreiz
iepriekšējiem
##ciņā
jubilejai
atvieglot
paplašināšana
attēli
LO
##far
piemērotāko
trauc
Argentīna
mājsaimniecības
pārspīlēt
##muižas
Augstskolas
trāpīja
nosaukumi
National
strikt
pagātnes
aktrises
Krau
Blu
finišē
nostiprināj
apstāties
lietuvieši
transport
##teikšu
deviņdesmit
kritika
uguni
Nepie
##97
šaušana
pārējā
vēstule
režisoru
vielām
negribas
##rādot
atbilstības
##3,7
procesos
Natālija
Valdības
prezidenti
##fest
##gaļu
bul
iesaistīj
##89
devēji
Fla
Ek
starptautiskais
intensīva
telekanāl
##grad
aizvadītas
##51
jebkad
demo
Andis
slēgšanu
##ph
pretiniece
priekšlikumiem
##cēm
According
KM
Astra
##kopības
aspektiem
automašīnai
godīgu
##Freiberga
aizrauj
##rob
izpausmes
##stādīt
kategoriski
muļķi
higiēnas
komfortabl
maksimālā
samazināja
Mogo
dīvaini
Markus
fizikas
inovatīvu
Arvils
pamāc
vāja
slepkavību
olimpiādes
Rus
Deniss
##IJAS
mazina
##dārzi
##jor
Virslīgas
Taujāt
1,9
Dobelē
next
izstrādājumus
publicēja
attīst
vēlamo
Inf
maisījum
Baltkrievijā
režisori
##83
ziemeļ
trio
Sabiedriskā
meklējumos
iestudējum
##tīte
citai
##8,5
##71
gribēs
turpinājums
Nīcas
dzīvojošo
izsauc
līs
senās
interesējoš
Zelt
set
pleciem
vakariņas
strādājuši
##grāmata
tādās
plaušu
slepkav
Get
dil
##illa
dārgu
atgriešanos
could
devīto
degvielu
modelē
draudi
Elza
seksa
##vusi
Koncerts
Vienotībai
projektē
izliek
emocionālā
2,7
investors
potenciāli
Hei
##telpa
temperatūrā
nokļuva
grupējumu
apliecības
augstskola
##cal
esošajām
##eo
rādīs
otrreiz
aizgājis
neizdodas
minētais
Pietiek
VK
115
vizīte
draudze
atsaucīg
Šū
tapuši
fla
deguna
Elektro
vēstī
dzīvībai
garīga
fran
Run
šomēnes
ģimnāzija
uzticības
##pļaut
nelegāli
##zālē
galvaspilsētu
Saldū
prezentācija
motīviem
filmēt
devējam
šķēp
uzskatāmi
vēroja
vol
braucējiem
mala
atzīti
reklāmu
atrasta
Grāmat
development
attīstīj
##tisks
head
Ojārs
atceres
ilgt
Sound
125
griež
iemet
atdod
##leru
result
dzīvnieks
zaļa
attīrīt
parastā
kāpa
Miks
izvēlējušies
##brauks
Bijušai
Galu
112
iepazinās
adresē
attīstot
Briedis
neizmantot
auduma
izturība
uztrauk
akadēmiskā
vislielākais
devāmies
kvotu
##ļū
Veide
Antra
saņēmu
Insurance
mehānisms
Sarunas
pārākumu
valodās
day
TTT
Saūda
Son
pilnveidošana
##RP
nenoskaidrot
atzīmēta
piecdesmit
priecīga
##ņē
##dzej
##ky
simbols
attiecīgu
laimīgs
sader
reģistrēšan
##leri
##kcijas
zemestrīce
izveidotu
domājoš
##4,3
Karjeras
##liņš
noziedzīga
izveidojuši
##wer
demokrātijas
nogādāt
Rat
Sīkāk
ērta
##spring
ilg
jebkāda
Henri
##kes
Sezonas
dzimušu
Maksimālā
##vadu
vēstījumu
Lielāko
##vit
4,5
Zariņa
bāzēt
band
izskatīšanas
tukšu
kapitāldaļu
kongresa
Muiž
ieteikumi
Ekonomiskās
pieņemot
Modes
##radi
Ušakova
ierīci
ratiņ
Partner
##triekt
izsniegta
Piebalgs
nekustamie
šaha
stāvēja
zēni
Album
viela
izmēģin
Rīko
kolekcijā
kompetencē
ataino
##bolis
zagt
segums
kādos
priecāties
##UP
apšaub
Jolanta
rekonstrukciju
dāvināt
gūtu
##tālā
mirdz
satraukt
izpildītājs
noslogo
lies
##oniju
sarūk
##03.
nokļuvu
##veja
aplikācijas
komentēja
organizēts
viedtālruni
Skolēnu
spējīga
LAB
Domin
objektīvi
ieva
##viņ
tīkam
instrumenti
Alp
atteikt
elementā
Ilves
##žū
satiek
izcīnījusi
Kārsavas
rād
komitejā
##sāc
##auž
kokus
dzīvoklis
##lov
zemesgabal
zinātniskās
Renault
##pet
##stāsies
smaidī
kreditēšanas
##ying
tirgotājiem
savienojumu
krastu
burvīg
Major
instrumentiem
galvojum
##viz
vēlēsies
Paties
##nere
pensionāri
satikties
cītīgi
paaudzēm
##idi
maksimālo
ieguvēju
ārēji
okt
stāties
1980.
atklāšanu
reorganizācija
uzaicinājum
paar
##KI
students
romāns
mīklas
zinātne
##box
deklarācija
nacionāla
jebkuras
respektē
Pārējie
nerunājot
Pet
zupa
##valde
Spēle
Vor
Public
tīkli
balti
strādājošajiem
Gir
##dēļ
mērens
pretendenta
skulptūra
trauma
mērce
lepni
audzināšanas
teiksim
##rāž
vērienīgā
nelegālā
pabalstiem
nākamajos
ū
Mazajā
spēlei
Valentīna
dzelzceļš
Dānija
vietnieku
vīrusa
anketa
##raust
##krat
ietilp
##SC
tīrīšanas
atbilstošas
skaistumu
##vielu
pulveri
##92
internets
akustisk
Poliju
##9,5
Gen
pārsūdzēt
if
momentu
##izator
balsīm
reģistrētas
iegādājas
Sergeja
ainavas
Basket
debitēja
Zei
##2,9
##spējuši
uzglabā
seksuāla
##enerālprokuratūr
izvērtās
Svin
sargi
republikāņu
##zz
mācījās
Edijs
agresīvi
tiesisku
tālrunis
Summer
Vētra
pamatīgu
svinībām
pazaudē
turku
lemj
prof
##enieks
nepilsoņ
open
viesnīca
spieg
identitātes
ķīmisko
amatiem
Tavs
ceļojoš
jūtams
Olimpiāde
Fro
labiekārtošanas
krasi
Neatkarīg
adreses
Dzintra
zupu
domāta
pārvalda
##09
sarakstīt
Hamilton
attēls
populārs
savienību
malu
vienotība
krievs
islāma
##kropļo
uzdots
stresu
##rakstot
eksotisk
astro
Eksperti
komentāros
čakl
##plēst
Girgensons
##ned
Ķeguma
##braukšana
atšķirīgu
pārtraukta
Skanste
ieslodzīt
##52
##paid
MI
Klaipēdas
statusā
lūpu
Aiga
nometne
paveica
event
War
veidoties
autoram
minētie
segšanai
izdots
SPA
Manā
Ever
pra
radušies
paaugstināj
sajūsmā
Vēstnesis
Krā
dzimušo
redzējuši
Vienotā
tek
secinājumus
kadastra
Akcija
apgrūtināta
vērta
paredzētā
sausa
##ādī
Turpin
ekonomikai
konkrētiem
spert
unikālo
Rūjienas
indeksa
zvani
iemanto
##plan
topā
##grupa
Kalna
##ļevs
jaunums
saikne
under
dueli
informatīva
tramvaju
reputāciju
torņa
uzlabošanu
iepirkumā
lāzer
elektronika
Veido
spied
puišiem
##enbergs
raksturot
Ingrīda
Džeimss
reliģija
##fen
nolēmuši
Trei
##tonu
maršrutos
drusku
kalnos
tehniskais
uzrāda
arodbiedrība
kreisi
##uļi
zīmēm
aizrāv
iesniegusi
pazīstamā
sensor
Agris
atlaiž
dvēsele
valmierieši
virziena
finansiāla
##zīmju
izpilda
lec
reģions
##šais
##EZ
190
komersantiem
atsaukties
aktīviem
paturēt
iegādāta
##šta
##tele
##studē
apvienību
paaugstinātu
MUN
atvaļinājuma
izmeklējumiem
tradicionālā
Komanda
neveido
norise
##dem
ticību
12:00
administratoru
lidot
taku
##lid
Nāciju
māla
pāreju
asociāciju
iespējamā
darījums
mudināt
skolēns
kalni
izbrīn
Rožu
Ledus
direktori
Jūn
1944.
noslēgšana
ierobežošana
smejas
ierasta
##taisa
depo
Pozitīv
aicināta
atrastu
iedzinējos
Čehijā
krējumu
uzvārds
kostīmu
information
centrālo
pārsniedza
ceļošana
sauszemes
##ušā
iecerēta
tramvaj
protestē
Āboliņš
nākamajām
2,3
1987.
Zvan
increased
ierēdņu
dēlam
sagatavoti
desert
##kab
Kaza
Diskusij
kūkas
deviņām
uzmet
##tni
brīnišķīga
system
uzlabošanā
uzveica
##lg
pazīmēm
def
##osta
Som
soļo
attaisnot
apliecin
pāreja
uzlabojot
maršruts
kafejnīca
uzsākusi
gaiša
fani
pirkuma
##nek
##inājuma
aizdomāties
briti
skatījumu
She
tarifi
LAT
diennakti
dzimtene
pastāsta
plānotas
specifiskā
18:00
tehnikā
bišu
Bērna
sagrāb
Gadu
months
Pašreiz
Egils
##82
Dol
##biedē
incidentu
laimīgā
during
dienesti
Cor
izskan
kopija
Portāls
tumši
##ijai
uzskatām
izcīna
latgaliešu
pamatoti
atradis
tehn
prognozēts
enerģētisk
elements
##lamp
banān
Eco
izpausm
lejup
spēkratu
piedzīt
skaidrojumu
maksājums
apbalvošanas
zēna
pārvaldei
upuriem
izvēlējies
iesaistītajām
maksāja
turpinātu
Vienīgi
Zig
nekādus
graudi
bojājumi
Prokuratūra
zādzība
Hilarija
veda
liecināja
dāvinā
Savienību
where
##inoša
aktualizēt
Restorān
rīkots
Dāvi
Lar
iezīmēt
##dziedāt
Norvēģija
fenomen
Komandas
mērķ
naba
lielveikala
neatbalsta
viduslaiku
##ey
##sāp
informēti
dīzeļdegviela
iecirknī
negadījums
stiprināšana
Mih
##DD
Sār
medicīniskā
Neesm
Zemgale
sniegtās
vietējais
izšķīr
realitāti
komplektā
izteikts
Tirgus
##raib
iesniegts
uzņēmējdarbība
gaisotnē
grand
lielajām
faniem
##vja
Kamer
bloķē
vēršas
Pieci
Raivis
rotācijas
patiesā
##ium
virziens
apliek
Toronto
audzēkni
ilgas
stabilizē
viesoj
##zān
##atch
export
saraksti
##atbild
Atklāt
##icka
maisījumu
acs
##iigi
velosipēda
aicinu
stingra
pircēja
Agro
astoņos
veidoti
izvietotas
##LIS
revīzijas
atbalstīs
gadīties
##kalnā
Merk
pašsaprotam
argumenti
klubiem
klīnikas
apmeklējums
world
##lītē
risināšanai
tirgiem
##īdz
ļaudīm
Commission
spek
rūķ
##bla
Interneta
Maestro
pretendents
redzeslokā
mūsdienīga
##eniece
##MC
projām
##hal
vilnis
gūti
regulārajā
##ētais
korekcijas
jaunākie
vina
restaurācijas
Augstākā
smaržu
mūsdienām
Durbes
Melnā
Pilnīgi
jālieto
Sel
Plan
service
##ķīti
##brūk
##klausīt
sacījis
ērču
personisko
##bojā
prasīs
betona
##SK
traki
literatūrā
saslimšanu
tapšanas
funkcionē
piešķirot
operatoru
Jūt
finālu
reālo
Galvenā
Andž
Skudra
digitāl
varoni
UK
kontrabandas
valdīja
pavadībā
pastrādā
tekstil
Karalistes
stratēģiskā
cūk
parūpēties
informatīvā
aktuālā
argumentu
SV
kalendārs
SKDS
burtu
mega
pēcāk
meklēja
basketbolistu
Balso
izsit
Hen
pastiprināti
anketu
dežūr
pārrunas
īstenoja
korupciju
septītajā
sanācis
rūpniecībā
##ēzi
Lejas
dzelzceļu
Pļ
atbilstošs
bērz
Objekt
Meri
pārveido
procedūrām
pamēģināt
diēta
atzīmi
terorismu
godalgas
iebildumi
##tore
Luk
kartupeļus
propagandas
varasiestādes
prāts
Prezidenta
Diž
cūkgaļa
slieksni
##īgākie
favorīti
politisku
Justs
tīru
lej
101
Krimināl
apsteidza
teritorijām
##7,4
sakop
satraukum
pilsonību
OCTA
apzinātie
##dēvē
##lavs
klāstīja
recepšu
īstenībā
mēģinājumi
TAS
aspektu
ziemeļaustrum
patīkamu
##58
##graf
zaļās
vēlaties
viesis
tūristiem
##slavē
tuvinieku
tempu
mask
Fl
ražotnes
varianti
konvencijas
Alojas
pietuvoj
sniedzējiem
pļavā
##BO
sievai
gaidīšanas
novēroja
sagatavoties
meistarklases
Centrāl
centies
vot
jaunāka
parunāt
##ražīg
individuālajā
nokārtot
08
maltīti
##nodrošināt
atdeva
tērpi
vīriem
##līt
parādīties
vienpadsmit
ražu
105
Straume
hiper
mazinās
Mīļ
Kokneses
Jen
izteiksmē
pastrādāt
zilo
##eeja
distance
izsūtīt
Kompānija
futbolistu
ĀCM
kūku
sameta
nepieciešamie
Sarun
##braukuši
Apvienotās
satelīt
muļķīg
##PE
barot
Romāns
demonstrēja
Mareks
cenšamies
privātpersona
##evska
Lauma
Haralds
neļāva
keramikas
izraut
##violet
leju
##ekļa
uzraudzībā
Kaimiņš
Lib
simti
Dzied
economic
likvidēts
get
zvana
Kriš
Gluži
apstiprinājusi
##4,2
##zir
trenēties
nerada
Augstāk
zvērināta
Izteikt
skolniece
##vide
vadīšanas
2,2
raksturīgā
Af
##māti
##guma
izjūtas
scenārija
brāļa
ziemeļrietum
##UN
vajā
veidošanai
Gaidām
##polit
##bed
##programma
neatļaut
zagļi
dēvētā
augusts
ādai
kritiskā
arhitekta
bagātība
samitā
migranti
##ĪBA
piedzīvojis
zib
platformā
uzbruka
Land
Tuvāk
degviela
lid
Jurijs
Valkā
netur
Slikt
##niks
Šveice
kursus
Music
nesaskaņ
līder
veidotas
Kamp
laikmetā
LNK
noliek
pienācīgi
jostas
izdalīt
Park
Pētījum
Salas
līgumiem
##DARB
Rūdolfs
budget
dziesmā
aizdeg
karogs
vienkāršot
vispārējo
izveidošanu
vidum
nedzird
ekspozīciju
Konkrēt
bikses
Nevis
Panamas
šito
izcīnīta
atbrīvošanu
pieņēmis
LIAA
ledusskapī
darbavietu
region
bruņotie
reklāma
Radoš
dūmu
Mārīte
cepam
firmu
jānorāda
vardarbība
rekomendācijas
mantojums
##ful
##riņš
Ropažu
putekļu
minimāli
##sarga
##tīn
Mazāk
Dzīves
bojāgājušo
elektroenerģiju
fizisku
rajonu
jāveido
FIA
Kučinski
nodomu
epizodē
progresīv
rādīja
uzbrukumus
##jošiem
##rl
šķidruma
aizraujošā
aizskar
ērtu
atpūta
Harijs
riekst
dakteri
tarifs
JAUN
##vina
pievienosies
kājnieku
konstitucionāl
skaistumkopšana
slikto
ātro
pulka
konkurentiem
mazināšanai
militāri
aste
apstiprin
Splendid
federāciju
iepirk
sagādāja
Neliel
##most
ieņēm
diagnoze
PDT
dāvinājum
Grāmatas
lietderīg
miruši
butu
##06.
##damies
Skola
rod
mobilajā
Lāsma
aizveda
##dol
delegācija
stress
glezniecība
laboratorijā
Jēzus
Pumpur
daudzveidība
Dina
varējām
aprakstu
kombinācija
188
Tuvojoties
hokejistiem
mes
Mūž
klasiskās
info
šādam
Baznīcas
##5,4
##ung
izstrādāto
##riks
ieguldījumiem
##ball
##kļūšana
sestā
Diev
Notiks
pārstrādāt
pārkāpj
Gazprom
hokejā
kafejnīcu
groziem
Jakov
septembris
ZM
Piemēr
slēgtā
##tuves
pērkona
apdraudēta
atrastas
vēzis
ciest
drēb
Vējoņa
klātesošos
dāmām
Jazz
##TC
Policisti
##graph
Vlad
izgatavošana
nodokļos
paātrināt
pabalsts
1945.
raidīja
galvaspilsēta
##bēg
daudzpusīg
komentāriem
klasika
teksti
ilgus
Populār
skaidrojam
##dalīt
Rim
mīļa
patversmes
inspektore
interpretācija
atšķirīgas
saulē
angliski
dalīsie
sakara
Ineta
svarīgāko
##lēkt
gabaliņu
dažādo
Fēnikss
hokejistu
visaptveroš
sagatavojusi
degunu
sagatavots
nepieciešamais
apsūdzētais
Melbārde
Nissan
jādod
saziedot
samazināties
kombin
cr
valūtas
Rē
salonā
Afganistānas
pietiekoši
Latgale
pakāpe
##spalva
sāc
ikdienišķ
nozieguma
acīmredzami
Meksika
may
tevis
radu
long
mazulis
pārvad
##apgāde
##strādes
izskatā
dalībnieces
vēlmēm
televīzija
Katrai
koncentrēties
apgaismojuma
jutīg
##ley
gramu
taisa
redzētu
Vācu
##sēsties
don
Dalībnieki
emisijas
neattiecas
ievērojams
bildi
skatienu
gulb
prasmi
ciklā
Sagatavo
BJSS
Programmā
invalīdu
Edvards
depresija
komforta
##gājām
aizturēšanas
izvērtēs
Limbažos
Nekustamā
aptieku
##kāpjot
obligāciju
godam
Mikro
publikai
run
vairak
līdzsvaru
sadali
advokāti
žurnālā
oranž
##zvanīja
pieprasīja
vispārējā
alternatīvo
mainīja
atveseļo
##3,1
gatavošanas
konsultants
priekšgalā
pārrobež
2,8
medī
Polit
ke
Die
Izmeklēšana
darbnīcās
nepiemērot
grozīt
amats
##LT
##000
##zinājām
izveidotas
Tādi
līdzekļa
##graud
rīdziniekiem
stabils
RO
izeja
krāsās
volejbolā
Vienotību
noslēdzies
ieskaitīt
Republikā
izstrādāja
nodarbināti
Likuma
izbraukt
īstajā
17:00
Company
0,8
##bro
nošaut
##fig
stādīt
##ēvičs
apsūdzētā
2,1
citrona
##light
##enam
krūšu
iestāties
izņēmums
izmantoju
##bon
titulēt
lidsabiedrība
lieki
##ceļš
such
dziedāšana
rītu
##TĒ
lasītāji
Erasmus
iegādājies
ugunsdzēsēju
mīklu
Droš
tādam
atteikšan
elementus
vērtēta
piegāde
intervija
Statistika
pazemināt
Atlant
piedāvājumā
veiksme
##jēdz
Ronaldu
provizorisk
zvaigzni
mērķdotācij
mīkla
karali
Media
sadalītas
ierasto
operatīvo
noteikšanas
Baltkrieviju
Ing
Adam
nepareiza
paskaidrot
aktivizē
Opti
iegādājoties
bioloģisko
gadadienu
ceļazīmi
Wi
##istam
pūli
##CO
Viljams
Rasnačs
bērniņu
kontaktu
apstrāde
Blau
atzinuši
Banku
##ešiem
veln
sarežģī
##ģiju
##tirgo
##-18
jelgavnieki
Put
dažās
asaras
restorāni
##politika
šķērsot
##vilka
ilgtspējīgu
Engures
##OD
tamlīdzīgi
izturību
garajā
##gala
līdzsvarot
##74
ietverta
apliecinoš
##kov
Torpedo
Jāatgādina
Liber
Rik
##oņ
saliek
tiesneši
##tab
skatē
eksperimentu
salāti
Informatīv
stāstā
klusi
virtuve
svarīgā
ierodoties
melodijas
stiprs
##urb
elpa
sestajā
valkā
price
noslēgta
dzīvs
jārisina
iepirkumos
apkārtējiem
Dukurs
##niņu
2,4
balles
Prieku
ekonomists
dzīvesveids
uzņemšana
atvairīja
slāni
sīvā
soļi
Kohēzija
##kumā
kopt
fun
Džeks
nodarbībās
##dēja
decision
seriālu
čūsk
iegriez
veltītu
uzskats
##kaite
##krāsot
##rēķinot
##nku
ekspedīcija
kongresā
##algo
ekspertīzes
##lop
uzskaitīt
pieslēgumu
##iķa
personālizstāde
Minimālā
regulas
nopietnā
Amatas
pieskār
##94
pedagogs
what
apsūdzēts
##bik
##kē
sadalīšan
vēsturiskajā
zemkopība
aizrautīg
liepājnieki
2013
tehniskajā
France
iecelts
viedtālruņu
Vanags
iedvesmas
##noziedz
Kristiān
fondā
##klausoties
cilvēce
žanra
org
##īno
##laidīs
akceptē
Rucavas
##taisīt
Būtiski
skanēja
Festivāls
slaveno
Riharda
sāpju
Inc
sastop
Agri
Paskat
dzīvojošie
ls
##nīšu
Dzeja
##jevu
AG
bagātināt
##grauz
ventspilnieki
priekšlaicīg
iedrošin
atpaliekot
sportista
Comp
uzved
steidzami
dzejnieka
mār
vistu
komentāri
svinīgi
publicēšanas
mūziķa
idi
Grūti
prezentēja
nagu
uzlabošanas
ieinteresēti
Neatkarīgā
izlīdzinājumu
Daniel
republikas
vienoto
nemāc
virsmu
arhitekti
nevalstisko
prognozēja
pētīj
brīvprātīgi
pietiekams
kāpt
##dodiet
##ojies
##ompetent
korporācij
nosodīj
##unas
##beļ
Siliņš
fiziskajā
geim
apavi
faktus
sadursmē
stāvēt
Dita
apmācība
Senā
pretinieka
apriņķa
kredītiestāde
augstāks
praktizē
Mark
aiziešana
izstrādei
##pitālsabiedrību
uzmanī
perspektīvas
kopas
iegūšanai
pozīcijām
##double
laime
##ration
##stājušies
ZA
neatkarīgā
grūta
very
atsaukt
Dur
Pieteikties
pilnveide
Grē
##peld
budžetam
novērtēšanas
plāt
modernizēt
rotājum
prasmēm
Kādēļ
Labs
Automašīn
izaicinājumi
##fiz
ventilācija
šaušanā
riskam
##īgums
##nietis
atnāca
mazākas
likumam
uzdeva
RFS
Nafta
pin
nezaudē
policists
cienītājiem
rokrakst
gatavoties
svešu
bezdarbnieki
Izmantoj
spēkam
##HO
##79
Anti
##plūdu
konkurē
##ģel
##omi
lomās
##īne
kanceleja
izrak
continue
meitai
Raimond
Reģionālās
##integr
pētnieku
uzzinātu
noformēti
Reuters
krēms
pauze
##daļas
##BC
sākotnējo
sprieduma
##mera
Saule
rinda
turpmākajā
##gājuši
maksimālais
kancelejai
If
Lam
derīguma
##militār
privatizācijas
##bremzē
##ckis
izpildei
kvalitātē
Livonijas
stock
Ilga
saistība
krēslu
labvēlīgi
sistemātisk
Zatler
ugunskura
global
kalnā
Vērtē
law
Trener
iznomā
Asociācija
Turpretī
nodrošinājumu
noskaņojumu
sliežu
izmēru
tālākā
sapulce
##AZ
barību
neatkarīgu
##kalnu
ciešan
atpalika
atdzesē
Bild
##ider
kilometriem
Neraugoties
Turaidas
riteņbraukšanas
talkas
militārajā
gūšana
izvēlētā
dueļ
krituma
Runa
##by
neveiksmes
Ziemeļvalstu
kandidāte
pamatojums
##tirgu
##raksti
pabeigšanas
now
beigšanas
##hel
##braucot
tautastērp
uzbrukt
##eckis
Ziemeļkorejas
klausītājus
pierakstīt
lasot
Grindeks
ideāla
dziedāja
augusi
Moto
stūri
nevainojam
koordinācijas
##piesātinā
Neko
cerībā
mārciņu
viņaprāt
Lak
strauju
##Vesel
probācijas
Gerhards
risinās
tukšā
modele
atbalstot
joslas
vīruss
Ukrainai
paga
Pēdējās
vecam
smēķēšanas
##ināto
palikušas
pieslēgum
##ĪT
augšup
lasītāja
izkārto
Konvencija
pircējs
##grāmatu
iekļūšanu
Sei
rallijs
sagatavošanās
interest
Kva
spra
izkāp
##nar
atvēršana
galdu
1986.
emisiju
PB
##vija
muiža
dalībnieka
sacīkšu
Šengenas
Ernests
Ch
Angel
segas
Varšavā
apliecinājumu
Komercbank
civilās
iepirkums
vietne
ieinteresēta
sistēmām
pēkšņ
##Ķ
ID
Āda
apbrīnojam
##87
Ungārija
negatīvo
abpusēj
vienatnē
slīp
##latvija
disku
Gundega
šuv
kvalitatīvāk
izveidojies
##NIE
pazudis
progress
pieteicās
somi
ritmi
Dienā
apsvērt
saikni
noslēdzošajā
atkarība
ballē
plašākas
Atbalst
izdarījusi
latvju
raksturīgi
##CT
apgabaltiesa
delegācijas
pārbūvēt
tradicionāla
##īds
##ery
piespiest
publisku
samazināšanos
cietumsodu
pārvaldīšanas
salīdzina
Arturs
alternatīvā
Reģionu
senioriem
atsākt
īstenotu
dalībniekam
##pst
nepārspē
Līdzās
dokumentācija
MAN
##VU
sarežģītu
neies
##tone
aizvadījis
Bah
darbavietas
izsniegšana
Sirmais
vāju
virtuālā
ste
reported
uzvedība
aizbrauca
jautri
##pilsētu
draudzeni
mac
krējuma
Mūziķ
##lasīja
sektoru
pasakas
minēju
izklāst
Kurbads
risinājā
apmaksātu
atzīstot
Negadījumā
##GI
diasporas
Premjers
nodošanas
atzīmes
nafta
Sky
arestēt
audzinātāja
vienoti
mainījās
nākusi
divniek
mūžībā
iesaiste
sasil
dzīvā
Nesa
sakārtota
Laimas
izpirk
ražotnē
iekarot
Valērijs
notekūdeņu
pagājis
sastopami
##DĪ
##tīti
Sacensībās
Republikāņu
Federāl
Laikmetīgā
tādos
vieglatlēti
mūsdienīgu
likmju
##nto
##0,00
interesējas
##dāvin
gribējās
soc
iespējamai
izmainīt
neapmierinātību
saldo
luksus
sapl
nodarbība
sakari
uzsākšanas
ierīkota
2,6
sper
inspektori
ēterā
spriedze
tīrīt
reģistrētā
##darījusi
Trešai
izstrādājusi
##VO
neredzu
ēdienkartē
pieraduši
neformālā
beidza
Lud
līme
atlīdzība
##all
Tuvo
##veri
dzīvojot
maratons
aizvada
amatos
tapšanā
pārējais
##robe
Cre
09
nodoti
##STĀ
pievienota
paņēma
provincē
kuņģa
Eesti
gurķi
zināju
Tabu
īstam
liecināt
daudzumā
paudusi
pārstāvniecības
mik
digitālās
olimpiskā
iesit
katastrofā
stafete
izsūt
atgriežot
medikamentus
Frank
atstās
##trof
##nomainīja
mācītājs
use
Mīlestība
plašākai
treniņi
iestudējumu
embargo
##kel
##ījumā
iecerē
būvju
##bināt
attiecināma
Izveido
demokrātu
visdažādākaj
labvēlīga
Daugavpili
Dev
##cir
Inguna
Rojas
##izācijā
Nokia
prognozēm
##atoriem
holesterīna
Amsterdam
darbnīcu
##puse
ienākt
Mati
patron
ķēdes
ieiet
pieliek
Iepriekšējo
komersanta
atvērti
tualetes
atlikuša
zemāks
cēloņi
ietaupīj
vertikāl
nr
Ārvalst
Luga
kontaktus
Love
paslēp
nevarot
kontrol
izveidojās
drošas
##gādāt
akcionāri
sētas
ieraudzīju
garas
roboti
ceremoniju
piederību
lsm
soļiem
##tuvē
uzsākot
8000
ēdamkarotes
Pāvilostas
profilā
Maskavu
bor
##jamie
Nova
citāda
Latgali
pusstundu
īpašībām
apgrūtina
6000
apvainoj
Reģistrēt
izvietošana
vnk
konkurenti
AK
brokastis
ēdienkarte
Stefan
##zeme
brāļu
Sandis
Slo
ādā
Peld
Vecum
ekipāžas
nesāk
paļauties
##09.
plānojam
izmantojis
Stipr
apavus
piemēri
uzstāšanos
sega
Ikdienā
izveidojusi
piket
##kajam
uzturēšana
piektdienā
tējkarote
muzik
zemākas
pārstāvēto
izvērtēšanas
šķidrumu
apelācijas
##ūns
sazināj
dzejoļu
somas
Miķelis
Komp
LIEL
definē
dzivo
takas
negadījumos
pianists
ūdeņos
manīt
iegūšanas
apakšā
klasiskā
siet
entuziasti
Mārim
nolikumu
novērtējuma
##terapija
Gulbe
tirgotājs
Maksims
krāsnī
##3,9
Pēdējais
kreditoru
gājiena
horeogrāfi
Izlas
ripas
Samanta
Fund
kāzām
Plus
grūts
preventīv
points
sāļ
mainot
būvēta
solās
jānotiek
##piņa
sniedzēja
attīrīšanas
atrieb
Brazīlijā
luterāņu
ārstniecisk
vācieši
drup
##īg
##ītim
saņēmēja
Petro
puišu
kreiso
svarīgākajiem
kukuli
Kulda
iesniedzēja
virzienos
Turnīra
sector
##rāns
tiesneša
pelna
griesti
Sad
lidostu
respondenti
##fel
Krūz
Ziņojum
menedžeri
Lolita
1200
ziemu
saimnieka
īpatnīb
parlamentārā
privāta
mīļotā
Ziedoņa
mēru
atšķirīgs
##marķē
spēcīgas
mākslīgi
dzejnieks
gumijas
Acīmredzot
esošu
talanti
450
Duk
##rakstīšanu
publikācija
panākums
izspēlēt
Būtisk
debates
kalt
Vāc
Irēna
maisiņu
izbūvē
EDS
apstiprināšana
suga
apskatāmi
attiec
reklāmā
rīkojas
saņēmēju
zvērināt
##riņ
Kasjauns
nākuši
ārstam
konceptuāli
Jū
jāliek
konflikti
maratonā
zemēm
pārliecinātos
reģistrēties
piedziņu
##ERS
Pik
Kair
Gul
apgrūtināt
paraksta
zinātni
piedalīj
civiliedzīvotāj
izpildītāji
Lil
tīkliem
##2.2.
paredzētajā
Aglonas
Dagdas
##hov
mājaslapas
Kolo
misiju
atbrīvošana
jautāt
##zn
eju
Vīn
akta
nepatika
##lietot
scenārijs
32.
OK
Mātes
Transporta
ātrumā
organizators
atkāpties
saskarties
Klin
aprēķini
nodarbe
capital
Sabīne
dāma
troksni
Maur
VAL
nekaun
attīstīta
azart
BALTA
partnera
padarīs
izglītojamo
Interesant
cietusi
##4,8
tuvākajos
rezervēt
##hta
līķi
domāja
klasiska
veltītā
Likumprojekts
##vitāti
vienīgie
##cova
Gagarina
cooperation
prospektā
garīgās
Viktora
klāsta
##ezi
jāsniedz
##taust
##ļaut
izmantojuši
Nākamgad
second
##kule
pašreizējie
nabadzības
avārijā
daiļrade
Maikls
draudzīgāk
apcietinā
PK
Nag
redze
graudaugu
identisk
##IV
seminārā
##81
bik
Fran
devos
egles
strādnieku
Buš
aizraujošu
##dinamisk
būvvaldes
##rent
devusies
dibinātā
iecienīta
Datu
oficiālu
medicīna
izsniegto
vajadzība
veicinoš
paziņojuma
logiem
liekā
nekustamaj
pateicās
daudzveidīga
Rūķ
programmatūras
reisi
emocionālo
represēt
nolūkam
Holding
##CH
varoņiem
SO
Šovasar
Runā
##dl
##pic
bruņotaj
praktisko
japāņu
straume
##spēli
komandier
kritērijus
vērtējuma
francūzi
dedzināšana
Astoņ
Kompānijas
Dakter
lugu
Ciem
Atis
atgriezt
act
iekļaušana
ekspres
rietumos
sektors
##vijas
noslēgusi
##93
##krūz
draudzenes
uzrādot
##1,5
runāju
uzdevuma
jebkur
augļiem
salona
##6,4
nobraukt
iemest
aprīkots
Atzinības
mašīnām
Global
lūguma
dizaineri
maģistrā
Dundagas
vitamīna
Latvietis
izra
riteni
Donalda
saglabāja
Kuģ
##NAS
##ūrija
Olimpiādē
ielūkoties
paaugstinās
uzsvēris
iemīļotā
startu
kritizēt
liellopu
internēta
realizāciju
norēķin
##veļ
nepilni
##5,6
noskaidroti
maltītes
##MAS
dejotāju
ēdieni
ceturtdaļfināl
##iskajiem
iesniedzis
benzīn
##jek
instances
konsultācijām
atskaites
atklājās
##žāvē
pielikumā
mitruma
runājoš
Šveici
izstrādātā
Char
meistardarb
vērtīgas
pagastos
##brid
izlozē
putniem
natural
izrāvienu
saistošajos
darījis
kopīgo
jāsaņem
sienām
iepriekšējais
apsolīj
patiess
Aiva
##grūt
Tiesu
aplēsēm
pedagoģe
nedarīt
piemērotāk
četrdesmit
treniņos
slogs
##viju
Business
darījumos
funkcionāli
viņ
reģistrāciju
##4,9
Zal
paliktu
jaunākajiem
atlasīt
Māksliniece
##EST
pārdomas
latviskā
attiecināt
sievišķīg
ceremonijas
Centrāltirgus
sižetā
nodarījuma
neatgriez
Ivanovs
Civil
motivācijas
konst
pannas
Labdarības
kokteiļ
elektrotīkla
##valstī
steidza
Rez
piešķirtā
Izvērtējot
novērojumi
Leonīds
Austra
Vineta
##rūd
##fakt
##hist
##smeļ
šķiršanās
1,0
bērniņa
January
zviedri
Krauze
izdeva
##dorf
Mam
##vr
adoptēt
atstājis
slīd
iegūšanu
pēdām
dzirdēj
paraugs
māmiņas
medikamenti
pārvietojas
##sudrab
Publisko
Faktiski
svešā
brauktuves
nodalījum
tagadējā
HES
smieklīgi
##tīrīt
Zanda
ceļgal
34.
pārliecības
astotdaļfinālā
Teic
formāta
##KUS
paziņojuš
parūpēj
pastiprinātu
amount
nevēlējās
against
index
nāc
administrē
##daļu
darbojoties
PL
##tuvoties
vizuāla
rezultatīvām
##oloģija
Lietuvos
##kompānija
novembris
īri
veciem
1919.
aktualitātes
atšķirt
zemāku
bojājumiem
prepar
buus
##bilesuparadize
Salaspilī
lieliskā
Arta
atšķir
##ēvica
##lex
neizpild
##ENS
izlūkošana
atvase
Oš
joslu
daudzkārt
##saimnieko
nesaprotam
atzīmējās
35.
imigranti
lietderīgi
ņemti
##ŠANA
izrādīties
##lietas
Dombrovska
mazumtirgotāj
1970.
neizdar
institūcijās
lielākajai
gaidu
organizācijai
offer
##kava
pilskaln
##čakarē
Franc
##smidzin
opozīcijā
##burgā
##darīt
nelaime
lāci
Konferences
##zaudē
vēju
Austrumos
zupas
hipo
garastāvokli
izpilddirektore
koledžā
Mier
praktiskās
Sod
plant
audzina
norādi
automobiļa
tarifa
vieniem
##atīva
Raž
Krust
nokļūst
profesora
papildināta
valstsvienību
Spartaks
##rol
mazgāšanas
iztērē
Ivanova
AN
organizētas
partnerus
sugām
uzaicin
presē
izsludināta
laikapstākļi
##solī
vitamīni
nojaukt
topošo
brāļiem
veiktajiem
pielāgoties
būvnieki
piederoša
elektrisko
derīga
kilometrā
Kate
specialitā
Edmunds
pārsūdz
##ŠU
septiņās
##zāģē
bung
lauv
neatstāj
jebkād
##rastos
Award
novērojama
produce
jauniete
vask
setu
##poz
##rijā
jaunības
##kmens
Mūr
Rēdlihs
realizācija
kvalifikācija
Igo
##lz
##NK
major
##audzinā
nākam
ekrānu
##gulēt
nenotika
aparāta
saulgriežu
kvotas
rezultatīvu
ZI
Jaunu
sagatavotajā
PTAC
etnogrāf
rēķinus
cietušie
pievienojas
Alla
Pētījuma
Svetlana
atmosfērā
objektā
pilnvērtīgu
Cūk
jāizdara
##sakiet
manai
izmitināšanas
Eirolīga
Aizturēt
katlu
turpmākās
šļ
vakariņ
Kristers
tamlīdzīg
raisīj
noticēt
ticu
Hār
braucieniem
Apvienoto
samazināta
##plu
##4,6
dziedāju
apstrādā
turpmākajos
pienāca
Aizvadītā
Jaroslav
tiesīga
PR
Truksni
##4,7
Notik
STARS
uzsācis
prognozi
Zar
Patērētāju
politiskais
avāriju
pielikuma
paaudzē
##ietim
kardio
##IJU
Zīle
Nez
apmierināta
izcel
perfekti
uzstāties
apmeklējumu
akcionāriem
grafisk
Skolā
Vladislavs
IKT
krāsām
Bob
vokālais
order
Zāļu
sajūt
##spēks
Augusta
apgrozīj
pēdējiem
pasargātu
construction
atbrīvoja
saskarsme
evakuēt
instrument
ievieš
izstrādājumi
klātbūtnes
slepkavības
Play
Liz
##proc
##dijs
Prec
baroka
drosme
neparasta
siev
level
Ventas
Saimniek
bieza
pensijā
##100
maiju
16:00
sagatavotība
Krista
prasme
saistītos
##bīn
izstāstīt
neskaitāma
vārtsarga
iestāšanos
baterija
Dator
tūres
pateicības
perspektīvā
dala
##lāv
iznomāt
Deju
##remontē
memorand
mākslīgā
##eku
sabiedr
apturēta
disciplīnas
pietuvināt
smaržo
liberāl
iesācēj
atziņas
Raunas
iekāp
##kultūr
skumji
labiekārtošana
lieko
##spriež
cukurs
Entonijs
Stopiņu
nodrošināšanā
frizier
izplatību
futbolu
##ņikovs
armiju
mātei
fail
iesniedzot
izmeklētāji
rūpīg
international
FIFA
pasludināj
studente
gabaliņos
President
klausī
bāriņtiesas
vecajā
arēnā
mehānismi
Itāliju
apkaimes
stipendijas
Juridiskā
kvalitatīvas
##FO
##baz
Losandželosas
iespaidīga
piparus
strādnieki
ietves
trūkumi
Suns
līst
progresu
apkalpe
izsist
jāspēlē
Valstu
piedzīvojums
biedrībai
##ējoties
raidīt
muzejam
Paredzam
basketboliste
Īpašu
iecienītā
atlase
Citādi
modernu
justos
atlīdzin
##bot
muļķības
pietiekamu
##special
bīstamo
tērauda
garīgo
sagraut
parakstīšana
##VĀ
##2,5
##9,9
iepazīstina
iedzimt
aspekts
laureātu
lietoju
rudzu
iepazinu
seksuālā
Džord
Politisk
##anovs
##ūka
meklēšana
Bit
Cin
##ksnis
analītiķi
saksofon
ūdeņu
izvairīšan
krimināllietu
izrāda
ieguldījumi
atzīmējot
parādīsies
Cilvēku
vainot
Stal
##žen
nodarbinātība
Pretendent
subjektīv
iejusties
krita
administratīvai
##ional
štāba
ierosināta
trenēt
jāvērtē
labākas
Pieņem
pudelē
novērojumu
mākslinieci
kontekst
solidaritātes
##šteins
##maļ
mazākumā
kristāl
tranzīt
vēsāk
Nitišs
iedalīt
##rek
Finance
lidojumus
klusā
##spiežot
sniegtā
##out
Melānijas
litr
vispārizglītoj
stulbi
iedzīvotājam
pārdeva
platuma
##gatav
smaka
teorijas
treneriem
Aktrise
1985.
Škoda
mandātu
pieskar
##ITA
Sniega
fotogrāfijām
pedagoģisk
kapitālu
ieviesa
uzlabojas
ražotne
##ējošā
Lang
##mašīna
nosacījums
iepakojumu
legalizācijas
nelielo
rosināja
nolēmum
kamaniņ
gleznotāja
Pērkon
aizbēg
tēr
fondiem
paziņas
jaunākajām
izvietota
apgādes
Lev
garāka
month
profit
semināri
turnīri
piederības
film
globāla
zemas
Tērvetes
protestu
nozīmēt
iebraukt
uzturēties
izaudzēt
jebkādas
Tikko
uzrauga
Uzbekistāna
plāksne
trenere
Ražotāj
patiks
Islandes
sula
##iniciat
1984.
Bogdan
jubileja
populārākā
##RĒ
aprēķiniem
gatavošana
atveidot
mira
cietuša
Streļčenoks
security
interesentus
grup
Apskat
sēžu
ULEB
financial
gaitām
Irina
Romā
37.
sabiedriski
##peli
žanru
analīzē
Nobela
apciemo
##publicē
vērsies
paziņojumi
##dejo
nākamajiem
##ņins
jaunākajā
Varšavas
grozu
##valsti
stulbu
putekļ
jostu
Beļ
plānošanu
Ruta
bērniņš
ikgadējo
atvērto
mednieki
##braukšanu
televizoru
lei
balstīts
bēgļ
kurss
nonāc
pauduši
Sofija
##pirkt
##MĒ
##tank
atkārtota
##šķēr
##degun
ciematā
priekšstats
##pakalpojumu
##nārs
lauki
vispar
discuss
frontes
jaunizveido
Dāniju
pagalma
pirmsākum
valdīt
Pī
energy
dzērieni
piedevām
atslēgu
medikamentiem
aviokompānijas
##dziņš
off
misijas
Apmēram
turienes
Lep
aizsargu
izstrādājumiem
sasaukt
sacīkstes
uzraudzīt
atvaļinājumā
izvilk
ĀM
institūtā
apbrīno
Piekt
degradē
JAU
##pelnīt
komunicēt
kuģiem
sniegšanai
trešdaļu
autobusā
brīvprātīgā
ekonomiskajā
nemainās
mierīga
latvieša
Krusta
nonākuša
apgabaltiesas
nervo
bulvārī
zīmēt
ignorēt
izvietošanu
list
Sirm
vecie
apmācies
sagatavotu
iesaistot
organizatore
Eksport
muguru
sviests
fotogrāfija
BBL
##BL
līdzjutēji
premjer
SS
Ah
personiska
kopums
pagājuši
11:00
figūra
prokurors
uzsākšanai
##varēšu
Viš
vecvecāki
plašākā
zinātniskā
Afganistānā
distanču
nesamērīg
Vaska
produktīv
##pele
Jokerit
meitenīte
rūpnīcu
atvaļinājumu
prezidentūras
Beat
administratora
spilgta
uzspiest
1960.
sapratis
pētniece
Lem
##gran
sadalījumu
celtniecība
vizuālās
##UD
noskaņojums
meklējumi
TNS
##līšu
atbildīgu
svētdienā
izmēģināju
##tad
##god
##belē
##dedzināt
augstuma
hektāri
lietvedība
bažām
performance
Prof
##6,6
govis
Zan
Praktisk
sesijā
tautieši
Karls
Ēnu
promiļ
gadījies
pieauguši
posmam
sasniegumi
Dzelzs
dēvēto
dizainere
Kredīt
aprīkojums
##ĪGI
atļauta
Lielākoties
zagli
bīstams
kanclere
meitiņa
iegādāto
Ceļo
##zob
case
##6,2
creat
globālo
koalīcijā
piesprieda
jūnijs
Pin
vadījis
brīvībai
nosargāt
Negrib
klātbūtnē
latvietim
##zvanīt
pilotu
dabīgā
bokseri
Līvi
##zāģēt
attur
##eklī
Metallurg
alerģija
back
stratēģiska
Win
aptiekas
konfliktā
visapkārt
##self
centieni
Spa
nepieļauj
auditorijas
diskusijām
sur
gāzu
atpūtu
##ovski
##time
Krasta
istaba
##likumi
Tasty
Silvija
Centrālajā
pārstāvja
Pav
kartupeļi
specializēj
Ķīpsalā
bīstamā
zinātu
inf
kurpes
efektivitāte
malām
##nz
balans
##IZ
DR
nākamaja
##TIS
Privatizācija
līča
Sociālaj
##būr
seš
skaidrojot
normāls
karaspēka
Tiklīdz
pilsētiņa
your
##spīlē
kategorija
vainagu
Lāce
izrāžu
saldējuma
pārbaudē
Jāatzīst
bulvāri
asociācijā
Aleksandru
##VAR
##kļūst
##ZĪ
masāža
apmāc
saņēmējs
noziegums
pretuzbrukum
maisu
Vēlos
glabāja
palīgu
atkarību
mednieku
alka
salām
spēlfilma
vienkopus
ārvalstīm
skanējumu
Luka
lēna
balsojumu
##krū
kārtot
Austrija
sekotāju
nepilnības
apgrūtināj
atvēl
##lma
terapiju
krājumi
likvidēšana
intervē
sastāda
##dzība
atlaišanu
gandarīti
cost
China
##yer
regulāru
Atlantijas
##8,4
##LAS
noskaņoti
baudām
Reģionāl
sniedzis
ieročiem
elektr
Ankara
paužot
atvērtā
bedres
izsaukums
skeptisk
samazināšanās
pazīstamu
novākt
Klāt
apspriež
nebūš
augšas
legal
gabala
vins
aizlieguma
nelaimīg
##izglī
FC
masā
uzņēmējam
svarīgāka
##palīdz
Jebkurā
mūzikl
statistiku
novērtēta
Dažreiz
pakļauta
##laikā
priecā
iestādīt
apstrīd
marihuāna
Valmiermuižas
pareizāk
uzbūvēta
uzlabojumus
sapņi
mājsaimniecībām
sadalīti
iespējamajiem
piedzimšana
holding
pakļauti
šķiro
186
nevalstiskās
izpelnījās
kandidatūra
##6,1
norādes
saglabājies
zemenes
atgriezusies
##5,3
basketbolistiem
##sievišķ
operu
Grūt
ārpolitikas
##ķos
lekcijā
nozīmētu
kastes
FA
Lada
otrkārt
sižeta
nepārtrauk
Ķuz
projektēt
sūta
centu
Fināl
7000
##pitālsabiedrības
iestudējums
##cirt
##servis
Dienvidu
Mač
detaļām
Baltais
darbavietā
nēsāt
kandidēt
Strauj
##icina
neprasa
Arābija
noguldījumu
šaurā
##VĪ
mākoņ
Grāmatu
veidoji
Muzeja
##ošajām
izloze
aprobežo
kapiem
##trak
nezināja
izgaismo
plūdu
sankcijām
tēvam
##provocē
Pastāsti
patērētāja
atvēra
sakārtošanu
iecerēto
Dievu
Georgij
audzēšanas
##talon
Freimanis
ministrijām
godīga
izprot
apzināšan
##rieb
festivālos
Reverta
Grozījum
##ško
ziedojumiem
priekšējā
##RAM
dievkalpojums
sagrāva
##virzās
Portugāle
izceļot
board
leģion
litri
pārspējot
izmeklēšanā
ierēdņi
premjeru
##administratīvajā
noslēgs
džin
Baha
ievadīt
zemesgabala
komponē
##IKS
iemieso
Turpat
Pētījumā
Ob
Sibīrijas
neprognozē
dialoga
koordinēt
pēta
mazuļiem
pierād
stratēģiski
##4,1
##Latvija
according
līdzjutējiem
aromātu
redzamā
izpilde
Attēl
##rēķināt
aizies
aizvieto
Masters
##DIEN
June
fotogrāfijās
dzīvība
##LES
Kalpaka
kādreizējā
latvieti
kāpostu
Band
meistara
svētdienās
##bāze
pilsoni
brīdinājuma
33.
##dek
privātpersonām
finālturnīrā
ECB
pārsteidzoši
nosaukta
glāzi
issue
Arhitekt
precizitāti
tiesiskā
vienojušies
runu
veidotājiem
Center
##dažos
19.30
uzruna
GB
sajūtām
##ījos
administratīvaj
atlēkušajām
reglamentē
pēdējam
Īpaša
Negadījum
elektroniska
pieejamu
Nad
##ouTube
1918.
neapšaubāmi
nosacīti
##stāsta
##ZA
zīmējumi
##migrant
##5,8
##UT
Magn
rīkošana
sodīti
labvēlīgu
uzskati
balsī
izturas
nākotnei
Zariņš
kreisās
atkārtotu
##3.1.
lietotājam
atmaksas
grasā
zāģ
dīķi
sulīg
nostrādāt
##row
Visbeidzot
ieklausīties
tenisisti
robežsargi
pastiprināta
Ulda
LVM
Elektronisk
pārmest
##raudzīties
sēžot
pļav
organizatorisk
sakņu
piedzīvojumiem
zīdaiņ
ugunsdrošība
priekšrocība
saprotama
stādi
##cre
ceļotāju
pietiekama
lodes
diska
tikšot
gājienā
imunitāte
pasmaid
Izdevum
raķetes
neierobežot
foreign
kinoteātrī
reitingu
zvaigznēm
Juglas
jāatbild
Šajos
atkritumiem
piesārņojuma
pieteicēj
pārspēj
Rock
nosūta
plauktos
Leļļu
Tiešām
novērošanas
dekorē
iebrauca
līdzdalības
##valsts
far
relatīvi
riekstu
##nāl
dienestiem
ierosināja
kaitīgo
piekrišana
veidoto
##ization
nezinot
faktiem
diagnozi
spilgtu
stratēģisko
vakaram
izplatītā
kāps
Uldi
##struct
specializ
Bik
autostāvvieta
##attieksies
vingrošanas
bijušajā
mīļi
Dzīvokļ
muld
regulāro
braucieni
parādot
##koku
Smilt
neatņemama
riteņbraucēji
agresija
gandarīts
dzeja
maksātājs
iesaistītas
atlēti
apkalpošanu
normatīvie
##LIK
izmaksāja
ambicioz
nozīmīgo
grāds
naudiņu
LED
ārzemnieku
##vagon
kopšana
ierīkošana
##čka
dienvidiem
Skolotāja
##jana
pieredzējušai
kombinēt
pretējo
Sir
Vjačeslav
Naudas
##zudīs
deficīta
oligarhu
detektīv
gudrs
Vīnes
vainīgu
kleitas
filozofija
galdā
skuj
izpētī
drauga
Ungārijā
cilveki
kopīgiem
jāprot
Pamatojoties
fotogrāfs
stiprināšanai
Stri
paēd
piegādātājiem
36.
noformējumu
Siltum
vienkāršā
Ivara
vadlīnijas
Atbalstīt
Gei
atslēga
Jul
plānojuma
##mēslojum
Māte
izpildīs
ŠEIT
depozīt
2500
fasā
debitē
prāto
iekšējie
Strenču
kriminālprocesā
shēmu
dodamies
##oviču
Lūsi
traģēdija
mākslinieciskai
did
Tēvzemei
1949.
##IO
apsūdz
gatavošanās
##lag
##rr
bioloģiski
uzmanīgiem
Grin
pilnīgs
vieglatlētikā
klasisko
paaudzi
Zinātņu
skatāmies
aizsākās
atbildot
Tautsaimniecība
izcelsmi
March
uzglabāt
otrajai
Federācijas
sārt
Dienvidkorejas
izvirzītas
velta
##skaud
apkuri
ģērbt
liter
##UMU
Austrumeiropā
Autovadītāj
raidorganizācij
Precīz
pasniegs
Gudr
##raida
publicētā
Laz
##FC
deja
viņā
apsūdzībā
Attīst
medaļa
##DR
##izlemj
Kumho
neatlaidīg
Svarīg
gurķu
pagāja
sarežģītā
sēta
mirušo
purva
Līdztek
gremošanas
volejbolisti
Čehiju
shēmā
neiztur
piedāvājumiem
sniegšana
##0,5
šķēršļus
LVC
pārbaudēm
Council
lepnumu
##evu
kopīgs
kūl
koncentrēt
praktiskā
zila
KL
atpazīstamību
##bāzt
data
nepatīkama
Mārtiņu
savainojumu
##tulko
raksturīgs
zeķes
uzkrājumi
radaru
##hold
pasniedzēja
izvirzot
neparasti
iespaidi
adapt
Hal
Pašreizējā
ekspozīcijā
Studentu
eirozonas
vēstījums
slaid
ierobežojums
aktrisi
arodbiedrību
vienkāršo
risina
dzinēja
noskaņās
paspēt
Sch
##fē
##lūgt
ieguldīto
##pulcē
Daesh
pēcpusdiena
gatavība
Parex
iesaistītās
uzlabošana
pamanīj
##ģene
talantīga
##klausa
asprātīg
##mināl
Moz
Tikpa
Jaunzēlande
Melbārdi
Dzirnavu
pārbūvi
##loģija
Pasniedz
īstermiņa
kreisajā
Blaumaņa
izskatītie
##ikita
sēņu
nosūtīja
Zvērināt
izteikumiem
Johans
pirkstiem
##zēja
viltus
ciemiņi
apskatā
Parlamentā
reitinga
uzvarai
Senior
Ban
izvēlēsies
tml
brīvprātīga
audzēju
pasu
agreement
sirdsapziņa
aplikācija
auzu
Avots
pieaugot
##leja
pieteikuš
semināra
jūlijs
centieniem
##MB
uzsākšanu
gribat
##6,3
Ple
##nieču
kriminālprocesa
ikvienā
noziedzīgu
izvirzījusi
vizīti
nekait
atdzim
neskaidrība
satraukumu
galvenaja
Augš
iemīlēj
pazaudēt
pavadījis
Komerc
organizatoriem
garīgi
desmitus
ostām
jācīnās
Piedalās
##īrs
CIT
More
Veic
##roka
morāli
Diez
Mater
improvizācija
testi
##bab
krūmu
Koka
Ghetto
rakstījis
solists
imigrantiem
lekcija
biezā
Kučinskim
iespaidā
mākoņains
national
pieteikumā
atkārtoja
##RR
sveikt
Satversme
nozīmēja
##stātos
slēgšanas
dolāra
nelaimē
##6,8
fiksēta
strē
veicināšanā
Gren
maigi
kubikmetru
Gol
Atklāj
lielveikalu
likvidācija
aizpildot
noraida
gribēji
look
formāli
noslēdzis
##ījušies
rallijā
pieņemšanā
kursā
1982.
avīzē
slalom
govs
##lēca
nekomentē
nepazīstam
laboratorija
##līze
Farm
licencēt
gadadienai
latvisko
apstiprināšanas
Japāna
redzējusi
vienuviet
##08.
Azerbaidžāna
portfeli
mēģināji
Daugaviņš
digitālā
paslēpt
riskē
nolaist
David
virsotne
pūš
soliņa
##cul
satiekas
specialitātē
aicināju
temps
griezt
##atīvo
Modern
Nacionāl
Māksla
kilo
sarakstīj
ieradusies
krāsns
Dubult
priekšnieku
ierindojas
saknēm
DNS
2012
kriminālvajāšan
astotajā
sapulci
salātiem
Oliver
##7,3
nobalsot
##GAD
280
sludinājumu
##vaicā
noteiktais
Puse
##arh
Pareiz
dārgāka
vērsti
Priekules
tēriņi
AC
##EJ
jaunībā
##izējot
1975.
plānošana
apvienošanās
domājis
including
psihiatri
Origo
##7,8
skapī
pacietīg
komandieri
Edīte
legalizē
##TUR
virzība
konditorejas
baumas
##sistēma
apgrozīb
Šķir
slēpj
jākļūst
grow
Uzlabo
Mākslinieku
atvēršanu
Pārējās
piemājas
Papildināt
##urnāli
pētniecisk
sagatavojuši
Tēvs
aksesuāru
because
plenēr
atvair
##sūtījis
laivas
mačiem
##8,3
laulība
atmet
Eiropadome
donoru
##nāšana
vairot
pārlej
izvilkt
demokrātiskā
ieguve
Anta
Intars
drošā
Ziedot
ritmu
apmeklējuši
Iepirkum
nodalīt
licis
pasīv
average
pierobežā
noturīg
##pek
##ūdens
gol
Kovaļ
atstādināt
nedarbojas
zālāj
tīk
vadošie
mitrā
##EA
found
atļautā
lētāka
cepeškrāsnī
Arhitektūras
norobežo
apgūšana
apmaksas
Op
likteņa
apraksta
mēģinājumiem
##5,2
alianse
apmaiņā
tumsā
iegūtās
lietoja
piedzimst
augstskolām
līdzinās
106
Gob
nepatīkami
komplikācij
barelu
Alf
zemesgrāmatā
skata
satricināj
mean
ciemu
dabai
Viņķele
skandālu
attēlā
even
garšvielas
iedod
AIZ
Transport
ansambli
psiholoģiski
politiskie
institūtu
##NG
##ertrūdes
bagātu
izšķirošajā
##darbotos
Zikas
##spraud
Sagaidām
Sanktpēterburgā
sekretāru
apdares
augļ
pastāvīgu
plānotais
Neatkarības
septītā
piemēriem
Regulator
saukli
noritēja
##KR
stand
apvidū
fundamentāl
pūles
Džastin
Asada
saskata
15:00
Ziemeļamerikas
sižetu
pirmatskaņoj
vērienīga
through
##kāršo
Alb
##salas
##key
mīksta
pamatojumu
aizej
ļauties
rietum
nejauš
liepājnieku
okupēt
Krēsl
ieslēdz
##gadīgā
Mančestra
province
pāragri
Nākamo
smiekli
Andre
nopērk
norisēm
##augdemonstrējum
bronzu
diabēta
frāze
eksperta
Tyre
izcils
tautiešu
bonus
krog
iejūt
mazuļa
pievēršot
LHF
pelnījuši
Sc
konfiscē
labdar
atslēgt
mākoņi
uzmundrin
interesantā
pieredzējuši
##,
Sava
gūta
apakšpunktu
agro
##skatīju
ziemeļiem
profesionalitāt
īslaicīgu
Pierīgā
Triju
seriāls
grunts
##zgl
gūtajiem
##5,7
ieteiktu
pieķerti
Koncertu
godalgu
atrisin
nemainīgs
tīrīšana
##rullē
patīkams
##smej
noteikšanai
kapsēta
gatavoja
##lko
Kļaviņš
175
kavēt
aptaujātie
kaitējuma
Krimuldas
Karalisk
cieša
mazuļi
hronika
Psih
aktīvisti
Bojā
0,9
atsvaidzin
līmeņos
aizturējusi
pēdu
Deviņ
kooperatīva
tirgotāja
divkārtēj
vienotību
##interesē
riteņu
remain
Priede
juristi
ieslodzījuma
Vītoliņa
##jusī
priekšmetiem
Og
Moldovas
īss
##grim
harmonisk
apbalvošana
nobeig
vinji
kosmisk
nometni
cienītāji
izsal
##orient
iekļaušanu
padomniece
mudinā
pieminekļi
mān
Minsk
##salā
kalniem
skelet
izdotos
virslīgā
zirga
slimnieku
stiprina
Tekst
noteiktajiem
##stājusies
debija
Patīk
Vaira
##BER
##postīt
Tajos
failu
bīstamāk
palielinājusies
ciparu
stārķ
##šū
pulkā
##jušā
Televīzija
Dizaina
preparātu
Kremli
##telpā
Sadarbībā
sagaid
##meer
izlūkdienest
ligzda
nodrošinājums
izklausās
farm
Liepāj
Svarīgāk
atkar
##ĒM
VILNI
gadatirgus
šķirošanas
Hanzas
komersanti
##EKS
plašo
anulē
ievērošana
bezpilot
izved
ži
investora
pierādīja
katedrā
raķešu
izdevusi
zemessargi
saldā
novērota
Valmieru
ievilkt
ražotā
##ījusies
##ērijā
saskatām
vērtīgi
pamatīga
klāstā
pētījumos
Attiecīgi
ierēdni
##yn
plānojot
dominējoš
##cāne
skatuvi
izteic
##tīna
kartēm
virtuvi
enter
Padome
vecaja
##zvaigzne
ZAAO
auditoriju
koeficients
Sevišķ
Brīnum
bridi
##aukā
veicināšanu
Broka
ainu
##finansē
##ņēmēji
Vērtējot
humanitār
include
##ēniem
sākties
pasniedzēji
radinieki
savākšanas
sabiedriskais
##ēviča
svinēšana
individual
Nordic
vilcieni
izbūvēta
##SO
palielinājuš
eksemplāru
inspektors
brilles
plānotajiem
izpaud
Bērziņu
ilgo
official
uzvarēs
Dārza
priecēja
liegta
Čaka
nepras
Pavasara
Apstiprināt
##apzinoties
collu
Spēlmaņu
vairumā
palielināšanai
administrēšan
Raz
agresīvu
tvnet
##enerāl
Luc
grama
bailēm
atvieglotu
zinātniekiem
1983.
apveltīt
ieņemot
solim
pārvar
Zālīte
gardu
nereģistrēt
aktualizē
caurumu
pagalmu
norādījumiem
Zivju
rietumiem
##ovic
kredīti
izraisīj
##raz
Līdzīga
sakrīt
14:00
progresē
astoņdesmit
Tallink
RTA
pajautā
##bili
371
atrodam
diktē
ledu
Kil
##cert
Čempion
audzin
gūto
##izrāde
113
##-10
atlaide
##OLI
alkoholisk
izsekot
šaujamieroč
drosmi
teātru
ierakstā
kreklu
neuzskata
Ferrari
koncepciju
meitasuzņēmum
dusmas
eksperimentā
radiem
pārvaldību
##3,5
tiesnesi
Dalībnieku
atradies
Pilnu
Let
raksturoja
ieraugot
izdarījuši
pašnāvību
Gustavs
izvirzīto
auditorijai
realizējot
##dzan
krātuve
PV
Glass
pieprasīta
fitnesa
laureāts
veidlapa
Izcil
iesaistīšanos
piekritu
platu
sekmīga
audi
apaviem
##ized
press
darboj
mazgāt
šaura
rezidentūra
Vecpiebalga
piekrišanu
cukur
kukuļa
##roze
##tēvs
slavenais
rindām
view
Maltas
modē
sniedzējs
izšķiroš
cienītāju
Dombrovski
##nēt
skatuve
paēst
Mič
sienā
meistarklasē
sfēra
censties
aicināji
pienesumu
rallij
Od
noslēgums
demogrāf
trauki
muzikāla
pacietība
telefonā
vakcīna
ienesīg
Putni
sunim
##meier
sargāt
cepumu
270
Labo
Viesītes
##plud
nopērkamas
negadījumiem
Sud
sasal
mob
lepnums
televīziju
loģika
jogas
tradicionālajā
veicināšana
izraisījis
Saprot
seta
Šte
Bek
bēdīgi
Aļona
gabals
Lāc
nodokl
office
radīsies
olām
kažok
Vienīgā
jāuzņemas
iekļauto
Mediķi
apsveic
Zaķis
Vein
##ĒS
pilsonim
bloku
motoru
prezentāciju
rēķins
kāpnēm
sacīkstēs
rektors
lauksaimnieki
izpaust
dienvidrietumu
atsaucība
Tuvākajā
##kad
futbolistiem
krēslā
norvēģi
lēmumā
nozīmīgākajiem
Pirmaj
##GP
inde
1939.
biedre
nodarbina
izsakā
Gatavojoties
Day
finālam
ņēma
demokrātija
tirgi
Bud
redzējums
vadīto
noderēt
1981.
atturas
jutu
sludinājum
##cho
107
##TAS
Īsten
Margarita
dinamika
veselīgs
Ulmaņa
lēmumam
Step
parakstīšanai
karaspēku
motokrosa
norvēģu
vainīgo
eļļā
##montē
pamatiem
##HE
vērienīgu
Čikāgas
##niski
patrulē
simfonisk
iznākumu
sekmētu
klātesoš
##dziesma
Uzņēmēji
mln
vienisprātis
detaļu
kleitu
uzņēmies
##veicināja
aizvērt
kļuvu
populārākajiem
brīdināt
Daily
mērījum
līgo
##lapa
atjaunošanā
Cēsīm
infekciju
līdztekus
iesniegumi
smird
apturēja
Boriss
##kaļ
apbalvoti
saulaina
izrakt
jūrmalniek
atdalīt
Kuz
Plaza
nobrauca
aplam
nogādāja
##7,6
apņēmusies
darot
mērījumu
gribēt
September
situation
gājēja
aizvadot
konvencija
Brigmanis
##jieties
administratīvi
mēģinājuma
cirku
Liec
13:00
galamērķ
111
help
##vērtējuši
advokāta
literatūru
simptomu
Nozīmīg
Grant
Reini
astoņā
Dziedātāja
pagātni
īpatsvaru
leļļu
apstākli
skrējēji
Arābu
pirkšana
apraksts
šķidrum
atmod
maiņā
republikā
padarīja
##skati
187
atmiņa
Ausma
Rastorgujevs
neizdosies
sekunž
datorā
mājīg
palielināja
likumos
Piedāvājam
jādzīvo
šef
dzimst
##riko
komiteju
grafiks
apkarot
Deb
Borisa
##,99
izrādīja
sestais
spēcīgāko
##9,8
iesniedzējs
šķirne
##spraust
kvalificētie
latgali
pilsētiņā
##cīņa
ņēmēju
rezumē
Matīsa
blokā
##RES
iesaistīta
uzbrūk
##griešana
dividen
atsevišķām
veselīgāk
103
Rozen
Paša
Atlik
vadu
neizslēdz
apgalvojumu
LELB
pagarināšanu
Saistīti
šoruden
155
tuvinieki
garantija
Mail
apņemšanos
iespaidīgā
paliekot
prezid
Abra
2030
izvēlējusie
medijs
##ēšot
##kinu
##maize
dzemdībām
pareizticīgo
dzejniece
Vidējā
porno
gatavošanos
AES
saimniecībām
bedrē
drošībā
lopu
apkope
pilnīgā
seniori
Street
GR
krēsla
centienus
Far
notāra
ievainojumus
Sveic
teroraktiem
patruļ
devuši
Green
izdevīgu
normālā
Talk
spriedzi
astoņ
muzeji
piedzīvojumi
cerot
Viljamsa
tiešu
Jaunpils
Slovākija
rīkojums
saimniekam
attēlota
##njem
##DES
līzinga
##ndz
receptē
pārdošanā
building
realizācijai
paraksti
meteoroloģisk
##DĒ
maratonu
Mate
vāku
saimnieciskā
Hip
nebalso
siltumtīkl
Tēva
noziedzības
debess
sauli
akmeņu
organizētajā
pieveikt
mūra
Teritorij
eksperimenti
##gere
rakstiski
minēti
Pic
noliedza
sauktā
dejām
dzimta
būvprojekt
atradusi
še
118
Arvien
pamanījuši
debesīm
jēdziens
rokdarbu
apkopotie
Konst
iespējamām
##piemin
Gita
dikti
Gard
cenz
Vasiļjevs
apvedceļ
brazīli
uzrakstu
jautra
iznākums
##bend
##pļauj
ķieģeļ
Kolumbija
mācīšanās
aizritēj
pretinieks
Putnu
##kļūt
Šar
1920.
torte
##SIM
radiniekiem
noslēgusies
izbeidz
muzikālu
tiesāt
formāts
SVF
uztvere
reālajā
Noteikt
iespējamība
mantisk
biezpien
secinājusi
krustojuma
gūtiem
makšķerēšanas
##konsult
Stan
redzēja
Spār
noritēs
nopirka
Satur
Bombardier
Edvīns
1973.
1976.
dažviet
punktos
##evica
paredzams
uzzināju
simfoniskā
Brisele
sastād
Gust
dokumentē
neveiksmīga
skulptūru
1969.
1972.
April
prata
izrādīs
##gums
Mazais
ieteikumiem
krāsot
##traukt
iespaidīgu
parādnieka
Māja
virsotnē
varone
skatieties
Deg
right
flor
maksātāji
nabaga
Tukums
kompetence
CFLA
Enerģija
krēsli
magn
iemīļota
atcelšana
samaisa
kaislīg
domstarpības
kuģošana
dāņu
parasto
##hall
##vele
galvassāpes
starptautisks
katedras
sasniegšanu
audžu
##īvs
Eglīte
Vīrieši
metiena
sociālajām
Keita
koordinā
ļaundabīg
uzzinās
protestēt
Krast
izstrādājot
līdzšinējais
Čerņ
gaidīju
būvprojekta
uzticēties
Pārsvarā
Uzsākt
asiņain
sūdzas
sportot
present
pieejamais
trenerim
sāpīgi
##4,5
##pret
1600
bērzu
Āgenskaln
atteicies
mešanā
saistošie
dejā
BVKB
Satversmē
funkcijām
identifikācijas
previous
gleznā
45.
likumdošana
aprēķināta
izsole
indeksā
frontē
locītavu
sērijveida
popularizē
tādejā
spēcīgākajā
Krīze
ballītē
##caur
kandidē
licencē
stiklu
palīdzējis
jārūpējas
krājums
mītnes
Caune
piedziņas
##reaģē
pamatturnīr
Eduarda
Vidēji
##OC
prestižāk
Bruno
misijā
vēlētāji
rezultatīvā
definīcija
##rik
##ondo
dāvanām
##drīkst
Putniņa
##MAN
netieši
Amber
Jakub
##AUG
pamēģin
##stādot
nepieļautu
svārstības
dzejnieku
ārzemniekiem
Ziemeļkoreja
##fol
skaņa
kūka
##rop
Velsa
Kultūrkapitāla
sacenšas
arheoloģisk
priecājos
##vita
teorija
nepalīdz
balonu
kalns
taustiņ
augsnē
Prime
102
nezini
Airlines
saspēles
vidusskolēn
lamā
rajons
vinu
##VIS
audzētāji
these
Cert
tiesnese
likvidēja
nemainīga
Golf
pateikties
sēdēja
Pāvels
bagātīgi
gudrība
zemju
jācenš
kopiena
##elpo
dienvid
velosipēdi
ātrākais
kulinār
stiprināšanu
kadastrālā
rīki
Express
sveču
Paziņojum
kritizēja
nokrišņiem
104
##fragment
Bruņ
panorāma
interesentam
##svētku
izpildot
Tauta
Life
Beļģija
ķerties
Viesnīc
Īpašuma
puķ
Atbrīvo
Energy
uzņēmējdarbībā
LNB
atbilstība
Nodarbība
izvēlēti
uzvilkt
tornī
##novskis
informēta
VTB
noderīgu
Minhenes
medicīniska
stacionārā
balkona
Jāsaka
##baltic
Pētersons
116
nejēdz
Pareizi
750
Graube
labais
iekšēji
ziep
diskomfort
vielmaiņa
radinieku
vēlama
cilts
saslimšana
##NC
Āfrikā
sprintā
renovēt
Pārdaugava
neticami
3,2
zemeņu
lēsts
bioloģiskās
Āboliņa
pievienojies
##gremdē
kokteili
nesekmīg
dabisko
Nākotne
big
Lielupes
optisk
##turēt
Ansis
##bloķē
dārgs
sacensties
Mežaparka
Ojāra
gatavota
izteicis
vecāks
pārbaudījums
Vidusjūras
revenue
Produkt
siltumapgāde
krāšņa
tukšo
sprieda
iemītnieku
darītava
attiecība
jēdzienu
talantīgā
atzīšanu
sūtot
Emīla
ģenerālis
izstādīt
remontam
Pala
LAU
Sony
aģentu
pārbaužu
stadions
Mājās
krāšņi
uzņēmās
Ludzā
kron
nožēlu
šauru
ražotni
Andr
apsaimniekot
veidojusi
Portugālē
lietišķās
Streiča
Adrese
sadzīvot
māksliniecisko
ofšor
domubiedru
before
normatīvu
magnētisk
##ickis
Stūr
laimē
kompensācija
Baldones
paspārnē
iespējamību
Nic
izīrēt
Atliek
zēniem
rezultativitāte
talantīgi
gaišu
Nora
noziedznieki
radīšanu
##IENA
tumšajā
finansēšanu
spriežot
Grieķiju
3,6
saskan
parakstījuši
Zinātnieki
izteikumi
Skotijas
izskatīsies
Rozītis
sānu
radušos
jaunietim
piegādātāju
240
vilni
neēd
ekskursija
Jelgavu
veidosies
universitāti
##ANT
##tant
apsūdzību
Amerika
compared
izstājās
Jebkura
saulains
azartspēļu
siltināšana
Pūce
krastos
nesatur
sportiska
atliekas
ērts
##OVS
important
##zik
malkas
pārsteigumi
##TIC
sapratni
restaurācija
Tūr
Nedrīkst
##audzis
klausītāji
riteņbraukšanā
dziļā
sniegusi
Lācis
protect
psiholoģija
##firma
izraisījusi
ZZ
Sub
fre
Gjensidige
Putinu
austrumiem
vingrojum
Skolu
visādas
izlaiduma
slavu
Apmeklētāji
redaktoram
Viegli
nelegāla
Ķē
iespējamie
rakstīšana
Millers
Aizsarg
iekārtota
2011
Ikauniece
Alberta
Auces
Nīderlande
Neno
Projektā
Rakstniek
Drīzāk
nātr
##turēsies
##hed
kompetenču
raugoties
Harija
Junkers
Smiltēns
Benz
metiens
gatavojot
apgaismo
ekrāniem
Tiesīb
operācijām
##lēnu
##oung
LIZDA
izskatīšanu
raksturīgo
Sistēma
skatījums
##baha
##hof
Notikuma
Fonda
rīks
Norvēģiju
griestu
stendā
klusums
neesat
ietur
deputātam
##stāsti
mēslu
CD
8.00
piensaimniek
ķīmiskā
aparāts
monēta
apmainīt
mikrouzņēmuma
Ekonomisk
saistām
Admiral
LNSO
pusfinālu
virza
gaita
pen
tante
lauks
slepkava
skaļāk
māmiņām
neslēpa
rotaļlietas
185
Piedāvā
izmēri
5,5
audzēja
baltkrievu
priekšnosacījum
pelnījis
apliecinošu
savējiem
žurnālista
##ERA
##7,2
termo
melnie
konteineru
mācībspēk
milzīgā
ļaundar
biedē
Pasaule
dalībvalsti
individuālu
precēt
motīvu
fāze
šad
Maska
apzinīg
pamatdarbīb
mērcē
imunitāti
1979.
Autotransporta
Trešo
staru
restaurēt
17.30
apgādā
himna
tomāti
risināj
dziļumā
specifika
vakcinācija
ziemai
ierastajā
reklamē
vakardiena
savainojuma
nozagta
latv
nobaudīt
atbildēs
kvartālā
nolēmām
apgaismojums
fragmentu
nacionālais
piemērojot
peec
saražo
pieņemtie
brīvprātīgie
Hav
agresīva
brīnišķīgi
konkrēts
pamatskolu
svarīgo
Iļja
atlaišana
aizdevumi
metodika
ierobežošanu
October
TALLINN
kontinenta
izstāties
kursi
dokumentālo
mīļākā
Orkla
Pensionār
robežkontroles
Pekinas
izskats
##ūnu
darbošanās
juridiskajā
proporcija
##akcija
spārni
lielvalst
iedeva
sešdesmit
balstītu
Četri
glābēju
Izaugsme
skandaloz
Sekoj
noliktavas
sašutumu
noieta
plūst
desmitniekā
Ārstu
secinājuš
pavera
Ulmanis
secinājumi
##ņenko
slavas
##ING
kapitāls
Nauda
krāsni
ilustrē
Rebeka
vēsturisku
neparastā
āķ
##mission
15.30
jur
noteikšana
Uzņēmēju
vēstniece
aizdomīgi
novietnē
noslēpt
Brit
triecienu
##dava
brigāde
##rācija
aplokšņu
worth
integrāciju
Trīsvienības
subsid
gājējiem
pārstāvot
baudu
Somiju
ELVI
sirdij
būvvalde
specifiku
Ten
maksājam
kapitāli
Miš
pulks
##latvi
plānoja
Ceļš
stabu
pusdienu
sīva
zvērinātu
eksponēt
##speciāl
soliste
apliecība
##pļāv
masku
riepām
nepamanīt
reaģējot
nostiprināšana
nulle
sitiena
aitas
lielākiem
nak
vienādu
iedarbojas
slapjš
muižu
nofotografēt
lupat
klavierēm
audzētāju
noslēp
Zob
palīdze
Mēneša
Ugunsdzēsēji
addition
rakete
tablo
vērsusies
Sig
##7,9
Aleksandr
hipotekār
nepiedalījās
objektīvu
zīmog
secībā
ķermenī
pretestību
gaumē
hroniska
Skulte
neizmantoja
cietušais
Gran
rakstiem
##tova
darbojies
##col
Agita
toreizējā
plašajā
augšanas
konvenciju
savstarpēja
Šmits
dzīvojis
apsveica
glabāšanu
industrijā
finišu
abonēšana
punktam
lidojumi
reper
nebrauc
nesīs
##7,7
uzstājas
Rep
tēli
laimēt
granul
##vienojusies
displej
Atjauno
pārmaksā
lasītājs
##spēļu
īpašais
audumu
##mond
piesārņo
mierīgāk
Salacgrīvā
Uzņēmējdarbība
Seima
izrunāt
nogali
ielūgumu
demokrātiska
komentējot
biatlonist
sprādziens
apriņķi
civiltiesisk
dekorācij
pavirš
paskaidrojumu
##anders
sier
BR
seksuāli
mudināja
Džona
nonākot
nomizo
neļaut
slauc
eng
augstums
apmaksāta
Piedāvājum
ausis
##5,9
pamanījis
diagnosticēt
Bufalo
Cavaliers
SynotTip
centimetriem
menedžment
atzīstam
autotransporta
Straupe
bada
##pārvadā
Jevgeņijs
industriju
apsūdzēto
Maria
unikālā
Honda
pastāst
mainīga
sakārtošanai
skaitļi
##nīši
akcionārs
iecirkni
kompetenci
objektos
struktūrvienību
intriga
TIKAI
mīļoto
Mērķis
##pina
exchange
vaniļas
norēķināties
##grūd
uzņemšanai
7,5
melnu
kolektīvam
motora
bezdarbnieka
pārvērš
šķēršļu
Ble
##klausījās
potenciālie
purn
metienos
simfonija
liecinieku
zinātniece
##2015
Andrim
##īdam
Rač
Festival
money
bijušajiem
komunālo
tehnikumā
vinja
uzsvars
##ĪBU
vēji
##house
darīšana
stingru
vērtīgs
sekundi
lielumu
atklājuši
risināšana
apjuk
patērētāji
Savienoto
mugurkaula
ERAF
samierināties
##tak
tautību
rožu
Helēna
##iniet
CSP
apsūdzēti
iepazīs
vērsa
musu
##komplektē
līdzekļos
veģetār
stīgu
ļāv
Rož
##došu
shēma
##īli
raisa
veterānu
Ķemeru
dzēriens
dzimto
##prasot
tālajā
finišā
strēlnieku
piedzīvoto
Simona
personībām
uzturēšan
nepārprotami
atklātais
nosūtīta
apkure
opozīcija
spēlēju
Domina
Management
manipulē
turieni
aitu
Viļānu
neatliekamās
moduļ
savienoja
atstarojoš
konsekvent
##8,1
##7,1
nodarīto
pamudināj
OIK
Adr
rate
daudzsološ
publiku
kapsētā
Normunda
Pārskat
Termin
Metal
pausto
rīsu
snieguši
Sanantonio
pretenzijas
John
ierasti
mūžīgi
stumbr
Kļaviņa
veiktajā
karaspēks
West
luga
American
atšķirību
minimāla
pārvērtīb
spuld
elektroniskajā
##lock
Brocēnu
Eksperiment
bļodā
fotoradaru
nenoliedz
noslīdē
tumsa
##ušām
##gēni
bojāta
red
pārstāvim
karaļa
saņēmušas
Delna
pusaudzi
izplūd
Ziemā
##the
dir
nepacietību
##table
##linga
pārcelties
finan
Ārsti
##sardzi
audzēšanu
economy
##dzel
parādīs
brīži
##jen
##pilsētas
izlaš
1971.
pateicīga
Miķeļ
Franču
līdzdalība
Akadēmija
food
pilota
nāvei
pievienošanos
still
108
departamentā
importēt
pārkraut
akadēmiju
jārīkojas
LPS
##formulē
##trūkst
sadur
bankrotē
Piņķ
Fon
Drag
Muižnieks
panākuma
proporcionāli
Sigulda
apsveikumu
Jaunjelgavas
ierosina
kabinetu
piemeklēt
somā
piesaistīja
segu
##zināsim
pelēkā
literatūra
soma
mājražotāju
Vecgada
skābekļa
fotografēt
izturēties
apziņu
Bell
laimīgu
viesojas
krāsaina
Mazsalacas
Baš
jaunieti
dizaineru
Klusā
dzimušam
jutā
Rubenis
nepieļaut
automāti
stili
aizmugures
atrakcijas
Sportacentrs
pildīja
zīda
##mocīt
Inita
##8,7
atklājusi
atsavināt
baktērijas
smiltis
RPP
##TER
mazākumtautību
guvuša
instalācija
1968.
dokumentāciju
##zemnieki
apliecinot
hokeju
kapacitāti
skatīšanās
prāmj
pārstrādā
vēlētājiem
treniņa
atgādinot
produktos
tirdziņā
buutu
##dolf
sauj
Ikvienam
komersants
consider
nomināciju
rūpēsies
##smelt
Svinīg
pārvēršas
iestājies
Apinis
uzraksti
Che
Nupat
primāri
vinnē
katlā
izšķiroša
uzcelta
negribētu
##ENE
NVS
Premier
nemiernieki
atbalstījusi
tehniskie
##erī
dabūja
milzīgo
Ērgļu
pielikumu
bud
šķirot
aspekti
##šoties
Francisk
uzņemas
nolasīt
Arvīds
Mārketinga
##inoši
##brik
klausīt
Angela
olimpiāde
saimnieciska
bagātāka
Live
aizņemties
basketbolu
ligzdo
nolaupīt
vakcinē
Slimnīca
2021.
sāncenš
jocīg
ūdensapgādes
straumē
vēsts
galds
ieinteresē
Sproģ
martu
##maņi
##inen
kolēģe
mājvietu
izsniegšanu
pudeli
gāzt
Smart
atļauto
##1.3.
##cīte
viltoj
lēti
##tamborē
Pļaviņš
evaņģēliski
39.
kolektīviem
atdzis
Publicēta
dzinējs
teiciens
meistarību
lūdzot
four
vērtējama
spāni
1974.
teoriju
Loren
largest
pieteica
izteikuši
##iepako
tiesīgs
metieni
Helsinku
Leģend
Kasparu
3,3
Kust
zemūdens
vienojas
galotnē
Štrombergs
izvērtēšanai
neilga
nepieder
##kare
negribēja
pārvarēj
Porošenko
trūcīgā
sēdoš
negaiss
pieturā
Turpinās
nodarījumiem
nodemonstrē
apņemšanās
garuma
ēnas
turpin
industrija
izvešana
##paga
virzieni
izteikties
īslaicīga
komplekts
ļāvis
medības
tējk
Lieldienas
kompromisu
lūpām
pieaicināt
spoguli
nopratinā
rotu
hlor
KN
Spice
Kristiāna
Ingu
atspēlēties
Hermanis
kūdras
seksīg
smaida
ražoto
labums
darījuši
##šteina
##ruden
Ance
papildinot
tematika
korporatīvo
billion
1936.
producentu
##acīkstē
albumi
Nebija
HTC
analizējot
hepatīta
Džordžs
oficiālai
sacerēt
nepietiekama
atlasi
atlikušajā
##inform
Asins
apdari
System
##tarp
personiski
close
neticam
##HL
apledo
##05.
fāzē
Dzintar
Mesi
sadalījums
##iskāk
liecinieki
apprec
1977.
laukumos
sagatavošanā
šoseju
optimisti
nodibināja
bijušajam
nopelniem
ideoloģija
olimpiskais
saglabājās
Lipmans
ķermenim
Iniciatīva
amatieru
attiecin
dzeltenā
Venēcijas
konfiskācijas
neparedzētiem
zoben
kilogrami
apdrošinātāju
##zinību
##fir
##arpus
noplūde
uzturlīdzekļu
daudzveidīgu
Ziemeļamerikā
tarifiem
traukā
##can
birst
ūdenssaimniecīb
aizvadīto
##šenko
Vīķe
Jonass
jānosak
##kēviča
kontos
manipulācij
kaula
Stambulā
ambīcijas
čigān
aplikācijā
##dzēš
grozī
apvienošana
Apdrošināšanas
efektīvs
jālemj
noziedzīgā
Vidējais
WRC
260
##8,2
##SIS
zobi
senču
Brīvdabas
jāvēršas
garais
atgriezušies
Gint
priežu
##9,2
ieteikumu
reorganizāciju
Photo
Rinald
Pavasarī
Liepaja
celiņu
pozicionē
##stabu
iesaistījušies
izzinoš
##kāne
vannas
izmaksa
Palm
iezīmēja
raugās
alkohols
##ciāl
kaķiem
##vig
zālien
gleznot
Simon
paustā
attāluma
reliģiskā
Alternatīv
Putniņš
Kaimiņa
pastaigu
garumu
izvēlies
noorganizēt
izlaida
tukši
neizpratni
reitingā
neparastu
montāža
piedzīvojuši
politiķe
mazajam
Krastiņa
##5,1
##cērt
konstatējusi
sales
##vērsīsies
Brāļu
atsevišķā
izsauca
Lauva
pārskatīšana
sniegtajiem
izstaigā
pasniedzēju
##MES
IIN
uzaicināja
##domājiet
##kļūs
lēta
Valtera
##pludināt
Big
neitralizē
monitoringa
dibinātāji
vissvarīgāk
noliktavā
##GĀ
citronu
grāvī
table
Mazliet
laikapstākļu
jāseko
portālos
VVD
prioritāti
kursos
Ādažos
producē
ēnā
saņēmām
izplatīšanu
rotaļas
šurp
izdevīga
pagrieziena
BAL
pārrunāja
him
##banka
vērtīgāko
bombardē
konstatējuši
velosipēdisti
izteikusi
vajadzīgā
kombinācijā
president
saldējumu
atpirk
##ķo
##laka
Braucien
visbeidzot
sanitār
Bred
stilisti
pasūtītāja
##TES
profilu
divstāv
noliegt
Brieža
ieskandin
talanta
zivīm
Augstskola
statist
##blē
breikbumb
paralimpisk
representative
41.
uzskaiti
vecvec
##vak
ģitārists
biezpiena
izkļūt
auksts
##teka
Deputāts
Huawei
Lubānas
SAB
emigr
##lenda
bezvadu
large
sakopšana
korespondente
Balvos
prasījumu
klasiķ
Annija
Rūdolfa
muskuļi
##pakāpju
gardumu
skrūv
Sprūd
##pozīcija
virzieniem
izglītošana
laurus
management
Uzbrukum
izgudrot
knapi
grīdu
Aktier
gatavu
##INĀT
SEZ
nerezidentu
##išk
speciālajā
Lubān
Rumānijā
ekskursiju
burkāni
organizējot
tūri
lod
Home
pārrēķin
Notiek
Četru
Stacijas
Intel
ezeri
akts
skatīs
Lightning
ansambļu
saņēmējiem
jūliju
paaugstina
piegājien
Sočos
padevās
nenoliedzami
migrē
uzņemot
reāls
gaism
Lieldienās
Gulbi
mājoklī
premium
princese
aizliegto
pārdomām
šķirt
pareizs
GT
##ējāt
tehnikums
Evelīna
ieskatīties
simtgadi
ierīcē
trijiem
kiber
gūtajām
##rub
braucis
dedzināt
Lībijas
PSR
Starptautisk
sanākt
simtus
Gunti
##kūst
##rādā
apmēri
tēriņu
dibinātāja
darinājum
raund
Krē
līdzcilvēku
audzēkne
priesteri
septiņdesmit
cilvēkos
deviņā
Republika
treniņš
dzīvu
kaitīga
nra
kreditoriem
does
pusgads
cienīgu
saucamā
bumbier
sapratne
Apmācīb
izdarīs
internāt
Patvēruma
lūdzis
Elektronisko
svarīgākā
servē
deleģēt
rehabilitācija
Atbilst
##0,4
Izrādē
Radošā
Ceļa
nolikuma
tuvējā
analīžu
luteriskā
meditācija
nezaudēt
kartupeļiem
Labā
nosēd
future
##ņina
elektriskā
lielums
##year
noderīgi
lapiņas
izrunā
Seriāl
nofilmē
lūgusi
palīdzējusi
akreditācija
Balticovo
mīļu
Mārtiņ
cēlā
suvenīru
step
retro
Literatūra
alerģisk
izlēma
##luktur
Mun
krāsainā
aizstāvji
remontēt
Leit
ritma
kleita
karsē
krastmalā
sprādzieni
pussargs
vēstnieka
mācoties
Rap
##apeec
pārstāj
Silva
lidojums
##though
Tradicionāli
musulmaņi
dzimteni
atgūst
##ekonomisk
##wood
##gaumīg
##vēlējāmies
Beidz
##ĶI
zīmoliem
kopienu
komunikācijā
1978.
aktivizēt
##metru
numuriem
both
dzēšanu
Grig
horizontāl
##ĪGA
##dzīšana
apkarošana
##Admidiņa
gubernator
arhīvs
pamatturnīrā
##ELE
meklēšanu
automobiļiem
##kļūšanu
Gruzijā
November
atvieglojumi
##iesniegumā
##UMA
kārtīga
##abiedrība
pirku
##pēj
##liecinot
##kraut
iemītnieki
kokos
ūdensvada
prezentācijā
mācījos
visne
##cēlusies
rakstnieku
štāb
plaisa
muz
Speciāli
dok
rezervi
6.30
Luksemburga
pusnakts
lūzumu
Informē
Ron
vilka
##knāb
##1,9
VĒL
98.
neskaitāmi
nelikumīga
ilgstošā
akmeni
atzar
skolēnam
RL
zaķi
kriminālprocesi
partizān
Austrālija
iesākās
pakāpē
##6,9
##cher
Meja
kļūd
##ŠANAS
pankūkas
##uzsver
komisārs
atstarotāj
uzticas
gramiem
kopuzņēmum
ietērp
##skrēju
##nodarbināt
pieredzēt
Niko
plaukstas
Bulgārijā
albumā
lokomotīv
olīveļļa
raidījumi
sapratām
siltumnīcā
iestudējuma
Pagast
gredzenu
mazināšana
Bičevskis
nosūtot
Snieg
lopi
augoša
##sviest
##istiskā
PrivatBank
nemiernieku
apstiprinājis
caurskatām
mūsdienīgā
ausīm
priekšmets
Piens
integrācija
vadošajā
Didzis
Intervija
startup
Fan
Strīķe
piešķīrusi
grūtniece
astotā
230
nenonāk
Šād
sarežģīto
cilvēkresurs
variantiem
Prisma
##locīt
Nacionālaj
teltī
Galvenie
konsultantu
proklamēšana
Ulbroka
skrējienu
līdzīgiem
apgriezt
izsludināja
skaitītāju
ieguvumi
ķirbju
parlamentu
mirkļi
Lilita
privātpersonu
elektroapgādes
Līvu
konstrukcija
##tech
atsavinā
janv
Sur
Ādams
ainava
senči
pazuduši
MAR
used
varēsiet
Aptaujā
sliedēm
ieskicē
piestiprināt
ebreji
sagaidīs
own
Ābel
atbraukuš
būvmateriālu
niša
līdzjūtību
policista
##7,5
svinot
680
klusa
PII
Dzemdību
Emīlija
Ligita
Racing
Lapsa
##svītro
moderno
saudzē
turētāja
paliku
zaķ
agresīvā
atteikumu
nodarbojā
pulciņa
liesmas
Lielākie
palūdz
There
valdījumā
Priecāj
nešķiet
kuratore
Stenlija
gudro
atgadīj
Week
ieslodzīto
how
apvienojušies
##jošajiem
fantastiska
every
Beigās
Stokholmas
Trop
Zag
due
Peugeot
inventāra
vienbalsīgi
skumja
Līguma
Gunāra
rūpniecība
##8,6
rota
Frankfurt
negrasās
Kanādu
##ausks
##saukusi
trenējas
sarīkoja
avārija
skriešana
kreisā
##ilde
aksesuāri
paplašinot
vēstnieku
apgaismojumu
ķēdē
iemaksā
Raitis
noslēgto
repertuāra
restorānos
divpusējā
valūtu
arguments
pūtīs
production
auguši
those
romantiska
skaistums
datumā
Kalē
izbraucien
jaudīgā
kundzi
Līgums
aizdedz
##6,7
develop
1967.
CNN
argumentē
naudiņa
juristu
iekšējai
##FA
iemītniekiem
nacisti
apģērbi
##šte
##TF
possible
Lidmašīn
notvert
svarā
inficē
Spēcīg
monopol
dominēja
veiktajām
Tīna
jāiegulda
mīloš
iekļūs
neatzīst
pensijām
programmēšanas
kopiju
##darbojusies
agresiju
1956.
uzzini
Grund
Sniedz
##ln
Nikolaja
Brīvā
dermat
Intervijā
LNMM
grādos
akcentu
komercsabiedrīb
gadskārtēj
nemateriāl
rīkotāju
augstiem
Migl
Grammy
aprindās
Bad
##vieši
izmērs
hormonu
aprēķināšanas
Dāvids
katliņ
īpatnības
amatier
atsavināšanas
izveidoto
Šadurski
tilti
Deivida
Ziemeļblāzma
Ministre
##likām
Dob
sportistam
guļam
vienāds
128
notiesā
##model
ģimenisk
saīsināt
braucām
sadraudzība
kaimiņvalsts
narkotikas
##9,4
Seg
mijas
izstrādājis
ogām
saukto
pogu
##cing
pateiks
zvejnieku
Lokomotiv
Olimpiskais
Multi
balvā
Ideāl
Party
zinātkār
salauzt
baudīšana
Miķelson
##nisko
Alkohol
added
kompleksi
noliktavu
Minētā
kontrolēja
festivāli
Atmodas
dzīvespriecīg
apdegum
Pusfināl
mācījies
##8,8
Oct
konfederācijas
sauso
atminas
Cil
Iedvesm
Vietējie
divarpus
Publicitātes
populārāko
biroji
franšīze
riteņbraucējs
šokolādi
neveiksmīgā
##ENU
kodeksa
neliecina
milzīgi
sprinta
degoš
fotogrāfi
saglabājusies
veikšana
portretu
##:15
dvīņu
ansambļi
ilglaicīg
sajūsmu
ieviešanā
termināli
viļņa
nomaiņu
Freibergs
Lek
psiholoģiskā
Jeb
taktisk
meklēju
ļauna
Vingr
peldbasein
1966.
tālumā
Karsum
gatvē
Neretas
Lidosta
pulvera
nagl
noklausīties
intensīvā
adīt
Bruk
loan
draudzīgā
teritoriāl
Amazon
korekti
mežiem
paradumiem
bilst
Solo
izgaismot
paziņu
norādītā
##AFP
mači
bruņojum
skandāls
July
want
Nigēr
Press
stop
##loģiski
Binde
Sēr
piekāpjot
saslimšanām
Fransuā
Marika
decline
sarežģījumi
Atzīmēj
vēlējos
produktivitāte
come
Akmens
sver
Slovākijā
pilnvērtīga
iesnieguši
Krieviņš
aktīvistu
Mūzika
privātie
Būt
ARĪ
nemīl
Investment
dzirdējusi
iesaistītajiem
aizmig
jaundzimušo
neskaidrību
priekšvakarā
nosūtīšana
amatnieki
uzkrāšan
Kristapu
Regža
izbeigšanu
zobiem
viļņi
pietika
Mont
Valmier
Kalvītis
mūziķe
spontān
prieki
ciemoj
kokapstrādes
privātais
pastāvēj
veči
sastāvdaļām
celtne
seksuālo
uzturētājs
vispārēja
pārnest
riskēt
koģenerācija
kredītiem
onkoloģisk
inovatīva
laikapstākļiem
Sanāk
##sprādzē
##norm
Meija
izvērtējumu
spiež
health
loterija
telpisk
huligāni
TIK
mātīte
kritēriju
Putra
TAD
pārstrādei
Oļega
pamatkapitāla
pulksteņa
semestr
aizraujoši
setos
tiecas
city
Brīdi
uzkarsē
Tū
##bērt
##frekvenc
##tārs
loģistik
simboliska
##nav
rudeni
Aigara
Cat
mīluli
konsultanti
pokemon
Dzimis
Spar
media
##kaisīt
izdari
pannā
ekrānā
politiskajiem
departament
vērīg
vērojot
pulciņu
Balode
ledāj
zibens
Spēl
tālmetieniem
##ecka
Bauska
apzīmējumu
administrators
kondicion
braucamās
sasmalcināt
sportisko
nomierināt
Gla
birža
juto
šonakt
pagrabā
olbaltumvielu
Birk
##analizē
Irbe
Grāv
##patīk
Daba
VALSTS
apstājās
neatkārtojam
pierobežas
##respondent
garšīgi
hormon
##pārdošanā
##publi
##riešu
##materiālu
neuztrauc
skatītājs
stāstot
mājvieta
vieš
##inošā
rupji
apstrādi
populāru
Jautājumu
Laimīg
since
Kamerons
normā
atcēla
aptieka
ēdienkarti
NVD
dialogs
vilnas
burbuļ
##glo
Ang
govju
palielināties
perform
zoo
aizrād
Kel
našķi
uzskatiem
turpretī
apstiprinājumu
account
mēle
izdeg
agrīnā
apaļa
barība
korekt
hektār
dabīga
populārākai
gadsimt
melnais
informatīvi
kleitā
political
Biedr
##ETA
##PORT
Kriminālprocesa
bull
lob
ievirzes
Ronalds
parādnieku
pārsegu
Dab
pazīstamais
Demokrātu
dzīvokļos
nešaub
atdeve
##ļķe
nezināju
##4.1.
##ndra
KON
mērena
Digital
dzejoli
izpilddirektora
kareivj
sakritība
kamermūzikas
kungam
##ĀCIJA
##bah
jebko
Dik
##ēlija
Smiltene
bloķēja
Ameriks
nevajadzēja
amatniecības
aprunā
Eurostat
123
Māksl
GAL
faktisko
fotoattēl
molekul
jāpiedalās
pārbaudījumu
rule
apmeklētājs
producente
nepietiekami
skaidrosies
rati
mg
veterināro
##ajaa
Aizdomā
sīriešu
Atvērto
sūdzēties
135
iedzīvoj
##ūkst
Iecav
saimnieci
##agars
cepumi
parauga
LDDK
Stokholmā
visdažādāko
klubos
saulainā
atkarīgi
Būtībā
higiēn
nieru
daudzfunkcionāl
zemāko
zaļumu
uzrunu
programmatūru
skaidrojums
Velta
melan
##ternātpamatskola
Krājbanka
atceries
iepirkumiem
##round
##stāk
Monta
digital
apprecējās
sapratuši
Aizkrauklē
aģents
bezvīzu
brokastu
oglekļa
brīvdienām
stiprināšanā
apdegumus
pabūt
Dēl
augustu
Sievietēm
Ziņot
primāra
veikaliņ
invalīdiem
komunisti
informējis
koncepta
Pūr
Irāna
termiņi
##TEN
saslimt
uztveram
piemiņai
akreditēt
piekritēji
Ainars
Debes
##slāpē
neparād
matr
Straut
motocikla
sūti
Galerija
lejupielādē
Dārg
mainīs
slejā
kūrortpilsēt
Mic
apcietināt
vienaudžiem
pastiprina
vokālo
apgabalos
##ņirg
mākoņiem
Zaļais
pārvest
regulā
ierunā
modelī
USD
##grūst
virsma
atmaksu
finālturnīra
Cīruli
Gabriel
mok
aplēses
pazeminās
pusdienām
kaimiņš
pamatne
Vaļ
##rror
virzīšan
apsēst
poļi
Ministri
Atkarībā
##UB
muzikālais
Nedomāj
Mazda
##8,9
premjerministru
skropst
Vējonim
bezkontakta
žogu
Vienkārš
izmeklējumi
among
uzņēmīg
pavāri
aprīko
apzīmēt
pļavas
nebaidās
pārbaudot
Šer
BEZ
aptuven
novērtēšana
izvirza
Darbības
atzīšana
Klasisk
draugam
neļaus
Andrea
Klein
dramatiskā
garlaicīgi
izņēmuma
drausm
izdošanu
piesārņojumu
##3.2.
jātur
Market
bobsleja
dienvidaustrumu
pasliktinās
traģiska
Pilsētā
ironisk
šūp
ierosinājuma
zinātnieks
jauktais
Kriminālpolicij
pārraudzībā
Malaizij
##pelnot
##ARI
Regīna
komunicē
tapušas
kritērijs
neizšķirts
populāro
Aminata
šķiras
mobilais
zūd
saredz
##žok
nemainīgi
gaisotni
20:00
onkoloģija
attēla
Angliju
kaltēt
vakant
##9,7
aknas
Kuldīga
simboliski
##koncerts
Sant
10.30
apdzīvo
##count
izrādījuš
Kemp
Limbaži
Āzijā
komponisti
trijniekā
pārmetumus
vāka
force
Neap
cūkām
Tobrīd
1/2
upju
bataljonu
2022.
##0,7
iekļauties
plānotie
adopt
tiltiem
##nakšņo
##kļūstot
Ilzi
emocionālu
viedtālruņi
stāvvietā
padodas
iepirkties
Slovan
noteicoš
##AJĀ
augstumu
##AUD
atlūgumu
Mākslinieks
Sākums
Aktuāl
reģistru
Astro
##ņēmām
gājēji
veterinārais
Thursday
already
devītajā
piegādēm
skapi
Apvienotajā
##zinājusi
nomelno
pārslas
centralizēta
vaicāja
mīluļ
konstrukcijā
spēkrati
##taisīja
Vasiļ
apstiprinājuš
lukturi
Vizītes
Šimkus
tapēc
partnerība
iekļūšana
apkalpošana
Vīri
Jēkabpili
klātesošie
grāmatnīc
JO
rudenim
presi
Lasīt
paziņa
pretterorism
smadzenēm
bilžu
paveicies
Elīza
nebijušu
atlicis
izziņo
snieguma
otrajam
izdevība
profesionāls
##ziņ
jāsagatavo
##grāfijā
small
call
##0,6
apvienojum
pārvadājumiem
Stīvens
evakuācija
katastrofu
izārstēt
izdevumos
avarē
jaunuzņēmum
Džeimsa
finanses
sameklēt
jebkādā
vīnogu
##ION
##skāra
gūs
114
mijā
Džer
krūtīm
kulminācija
izdarīšanu
riktīg
iniciatīvām
beidzis
tradicionālais
mežacūku
1964.
different
ugunskuru
##kontrolē
veicējiem
kulinārijas
119
Baltie
Garkalnes
Koha
šaubām
instrukcija
mitrums
līdzvērtīga
apstādin
Sesks
dzērāj
##TEI
mīkstu
Dārziņa
jūn
iznīcināšana
rašanos
saņemam
Aizliegt
Streļčenoka
divatā
atšķirīgā
##JUMS
turpinām
Marsa
Bert
Mitsubishi
raidsabiedrība
vēstniecību
viendabīg
disciplinārliet
žoga
sudrabu
individuāl
dienaskārtīb
elektrība
rīkošanu
##VIET
kurieni
##rkšķ
Paradīze
fantastiski
signalizācija
kontrolpunkt
##connect
jaunāki
doc
##ševs
Visos
##hova
Brīvo
izvērtēšana
malku
Premjer
likumdošanā
eksāmena
saindēj
celšanu
dzīvojuši
##kill
noteiktajam
patīkamāk
Stil
atstājusi
Rietumeiropas
ierindas
televizora
akmeņiem
jurists
Mālpils
Bog
labak
demokrātiju
ļāvusi
##9,6
Donald
Bayern
Tuesday
become
##elektrostacijas
priekšnesumiem
Ienāk
pārvietošanu
bezdarbs
Džef
kvartāla
ieteikums
Baltinava
rēķināties
atsaucās
iedarbināt
Puisi
karstuma
333
Madrid
diriģē
Apollo
Interesenti
labklājība
Model
smuki
impl
vīzu
Jekaterina
pavadīs
free
around
ilgtspēja
Konferencē
antibiotik
karnevāl
nogurums
navigācija
identitāte
vēstījum
Daugavā
pasniedzējs
tīkl
miruša
māsām
vēj
pārgāja
izciliem
izvērtēja
dakter
atverot
Beverīna
ērtībām
ideāls
Kaņep
Finālā
saķer
ieskait
##slīpē
##1,3
apsūdzība
##ency
##vēlējies
Šarlote
izklaide
ŠO
romantiskā
veltīja
forumu
akcentēt
repertuārā
gripu
Soču
##līk
Blakus
avīze
adresēt
iecienījuši
modr
sprādzienu
termiņuzturēšan
Urban
konsultēties
Latkovskis
pārraides
Tech
##hidr
kunga
traku
Taut
##trenē
##1,4
2008
ugunsgrēkā
pārsteiguma
pielīdzinām
Ideju
Netic
##Credit
local
operation
angli
##čin
cīnīj
lūgšana
slepena
rezultat
Dmitrija
Hyundai
Elmārs
dīzeļ
komplekti
buklet
pretestība
atslābin
pastāstīs
izturēšan
novērojams
Saulīte
kontinentā
##,15
Fit
atrisināj
aizturēto
izbeigšan
konfiscējot
Krāslavā
industriālā
okupāciju
pretlikumīg
LĪDZ
ķīmiska
palielinājums
sadedzin
neapdraud
otrie
Rīdzinieka
pievilcīga
rituālu
nacional
fondi
Dāvj
arhitektūra
uzlabojusies
operat
reitings
māmiņu
atspēlēja
Cup
Rolanda
##ZU
Šorīt
klīnika
Ostas
Stru
pārskaitīt
iedibināt
Būvvalde
Bondars
Patriks
Stād
Kongresu
aromāts
##uare
Draud
tuvākajiem
struktūrvienībā
third
##instalē
deleģē
zīdaini
pārvaldnieka
budžet
Atletico
Erdogans
1961.
Preiļos
skatāmi
celtniecību
##motor
vēnu
pasliktināj
pacēla
izvērtējums
vulkān
Ķelnē
aizdomām
tehnisku
Dil
##konstr
##stabilizē
Ameriku
pierādījums
privātmāju
pretrunīgi
Club
latviska
##īšot
uzdāvināja
apšaubīt
##prieks
atbilžu
žults
skatījās
##kārtīg
spožu
mēģinājumā
prast
Porziņģim
##prasīt
izvairās
ģener
parādsaistības
protokola
populācija
internētā
sūdzēj
Šil
noslēpumi
psiholoģiska
sarunāties
2010
iepretim
briesmas
vispusīg
igauni
dotācija
ieceļot
partnere
atveseļošanās
kāposti
pētniecisko
Zaķu
šausmu
Grigor
SMS
pabalsti
EURO
neuzmanības
obligācijas
trenažieru
īslaicīgs
pieteikšanos
kaislība
trāpīj
Kontrol
Eglītis
jāpērk
##night
augsne
Stāv
sarunāt
##language
Septembrī
lidaparātu
pietiktu
miegs
pakļautībā
Egle
Hall
Nominācijā
rūpnieciskā
Estate
asarām
##lāne
North
izvair
vērsušies
burciņ
neievērošanu
atbilstošo
Sprādzien
kalendāru
kompozīciju
stāvēšana
Formula
aiziešanu
tematu
pelni
digitālajā
Pretējā
aizsarga
Tabakas
Astana
lakat
lielisko
Brun
##2,7
akord
kvalificējā
Augustā
kWh
uzstādīšanu
sajaukt
ieraudzīja
tehnoloģisko
Vienošanā
Sēlija
apsaimniekotājs
pasūtītājs
meet
secinājumiem
trenētā
bērnudārzos
islāmistu
neizbēgami
kukaiņu
sesiju
##dinā
vērtēšana
prestižā
noslēdzošā
cap
aktier
aktualizēj
February
biļetēm
maksātnespējīg
tautsaimniecībā
muzikanti
Brod
sun
##ritēja
iztīrīt
kopēju
Izklaus
Annu
piederumu
##RAKST
Blūms
ienaidnieku
fragmenti
psiholoģe
pārskaitījum
##Rīga
Draugiem
cipari
##ainais
ievārīj
dzirdējuši
##try
izlasīju
tribīnē
##EVA
Robin
##pazīt
izraidīt
bagātību
transplantācija
1962.
Komunālā
sveicienu
Stabu
Igora
Glob
##kausē
satikšanās
##-16
līgumcena
improve
veidojuši
Nozare
ģint
Slokas
aizmirsi
Marko
kategoriju
Mocarta
līdzvērtīgu
Mašīn
tālruņu
##ello
augšējā
pārdevēji
Rosbergs
##pildīju
lopbarīb
tērpos
veidotāju
Bonda
ilgumu
izcīnī
Siliņa
Druva
asociēt
aizraušanās
Dzērve
jāsamazina
Bostonas
pateicīgs
graujoš
Cukur
datoriem
##pīpē
##ciņi
PAS
vadītajā
Organizē
gliemež
pielāgošan
178
Tusks
valstiskā
derētu
priekšnesumi
##pitālsabiedrībā
Mihaila
ienaidnieki
vērtu
maltīte
mājup
370
neapmeklē
kaitējums
gadsimtiem
Festivālā
dramatiska
VDK
promiles
Vecāku
iegūstam
desmitgadē
Tere
Law
##dzivo
attīrīšana
dabīgi
braucēja
iecerējusi
veterinār
Bun
melu
210
Ukraine
1965.
Kristians
cirks
##0,8
pārtraukumu
Pieļauj
skrējēju
establish
Rozentāls
asinīm
desmitgade
##,95
rezidentu
pazīstamāk
melnajā
morālā
Raj
soļa
Kalifornijas
Tirgotāj
##tecē
Fal
magnij
Andreju
dzemdības
konkurētspējīgu
bīd
kanāli
##rāva
Mode
Vaš
know
Bebr
radari
algoritm
Maķedonija
aculiecinieku
effect
florbolā
nebaidī
Vadims
veikums
Jaunākā
550
izcilo
kvalificēsie
izjuk
jāsamaksā
šokolāde
Vidzeme
strada
apbalvojuma
ikgadējais
makro
GPS
##eviču
postījumu
Izglītība
Džonsons
##ēnā
Temp
josla
domājat
kanādiešu
medicīnu
##ĪGĀ
baidīj
lietotni
pavadot
##trīt
pievienošanās
mājokļi
gandarīta
nepatīkamu
Komentēj
ūdeņiem
##naak
solistu
179
elite
garšīga
kritiska
fināli
Ziemeļkurzemes
improvizē
mehānisma
teorētiskā
mārciņas
priekšlikuma
nākamie
Jāņiem
With
medija
value
117
febr
līmeņu
Best
Apmeklētāju
Detalizēt
pasažiere
scenāriji
Brīvdienās
paļāv
operatīva
atlika
Vega
##fond
farmaceiti
Pekinā
cilvēcīg
iespaidīgs
Edgaru
tekstā
nemanām
Strēlnieks
informatīvajā
Iepazīsti
Mežaparkā
neatceros
mazums
singlu
plānotajā
Likumsargi
Rodrig
Dāl
zemākais
publicējis
labsajūtu
apģērbā
līdzfinansēt
Oskaru
izolēt
minimālais
##tūci
Sākoties
ievēlēja
sadala
Līv
bīstamība
Onkoloģija
abonēj
medmās
laupīt
later
HD
aizvietot
atraut
Gabr
tīt
Sociālais
koncerns
matemātikā
publikācijā
lietuvieti
pavairo
##PC
atsau
regulējoš
pārtraukšanu
pazudusi
prestiža
must
iekaisumu
Kiprā
PET
piesārņot
nosvinē
gulēja
Baz
Foreign
Janvārī
koalīciju
Sākotnējā
Čigāne
Christ
What
Nauris
etniskā
pienākuma
Kalvi
##glob
sagaidīšana
Wednesday
Atceries
Uzvarētāju
smaku
vadīšana
Gaile
sniedzēji
uzveikt
fiskāl
izšķirošo
izskatīs
Tērbata
Universitāti
apakšuzņēmēj
aparāti
Andrejeva
noklausī
izseko
Power
Frīd
vagonu
Nicā
rullī
pievilcīgāk
sižets
nepiedāvā
House
citron
pirti
##pard
Krimā
nogalina
##līši
lasu
momentā
strī
posteni
rabarber
racionāli
1950.
##lāde
finansēšanai
mācītāja
##DAS
mobilizē
liepājniekiem
Fotogrāfijas
Novembr
triku
Ilgtspējīg
izejvielas
izjaukt
globāli
atgrieztos
manipulācijas
iekšpusē
iepirkumi
kabeļu
saņēm
lobē
nudien
ierēdņiem
##planēt
skaitļiem
VEI
atzinā
spridz
pateicīgi
skaitīšana
kuģī
320
find
iecerētā
metal
rāmi
pārraudzība
Ksenija
believe
negaidītu
2020
kustēties
līdzsvara
bēgt
##2,2
dāvāt
salikum
gļotād
Nesaprotu
indeksu
pārdevēju
pazudušo
apkaim
riteņiem
Max
expected
gumij
svinīgajā
Ilūkstes
vitamīns
dramaturģi
kompliment
ģitāras
tips
##skābi
cienā
##laupīšana
##0,3
Riebiņu
nekautrē
klasificēt
lūpas
sadzirdēt
paziņām
##koviča
līdzfinansē
centrālaj
##heim
Maijā
noskaidrojā
PAT
paradumi
izdomāja
##plī
prospekta
apmierināj
patversme
vakariņām
klavieres
##saukšanu
iestājoties
ierindot
pārsteigumiem
tērpiem
##ielaida
Karalistē
divpunktu
palielināšanos
Jākobs
tvaika
Piekrītu
novārtā
propaganda
augumu
Rudenī
##virzīt
taisno
Treškārt
hobijs
neveiksme
rakstveida
sāniem
spēl
nesanāca
pierādīji
uzdāvināt
Principā
krievvalodīgo
locītavas
1959.
iesniegšanu
Lilija
LKA
opus
šķirnēm
iestājusies
kopumu
prestižajā
tanku
noraidījumu
stulba
dzēriena
kaimiņos
pirmsākumiem
altār
sākuša
wage
dejotāja
auditorija
Elektroenerģija
court
Ieteicam
labad
stratēģijā
Mazie
pieguloš
Apkārt
Garš
Pērnavas
##līz
aktīvajā
Gur
sindroms
sarukusi
Grupp
norisē
##5,5
Valstis
Bund
jūl
atraktīvā
līdzīpašnieks
ķirurģija
precizitāte
Zemāk
Kost
##zinājuši
izspiest
unikāli
atkāpās
Aktieris
sašķelt
ģildē
##iskajai
sapņot
attālumu
detalizētāk
ēdināšanu
šefpavārs
valstsvienībā
jāizpild
nomedīt
jāpierāda
Monday
##prakti
Fur
vienots
Ārpus
##vešanu
##inājies
iejaukšanās
Pieprasījum
drosmīgi
ieradumu
liecību
skanīg
##startē
nepaliek
##konkurē
valkāt
Skrīveru
pāvests
ģenētiski
izdevis
frakcija
pamana
Bukša
ķirurgs
Office
Pieredze
kritušo
Eng
Drāma
##hl
meteor
nokritu
māl
kronēt
Ints
##0,2
##spēlējot
RĪGAS
arhitektūru
astotdaļfināla
general
Skandināvijā
Monte
teikumu
egle
slēgs
olimpiskaj
Līvānos
Thunder
pīp
atmin
##ņikova
steidzīg
graut
lietusgāzes
sākumcena
īpatnēj
īpašību
sintētisk
jāatzīmē
pārdzīvot
izteikšan
##skatījusi
aviokompānija
Doņecka
Skaidrīte
klātesošaj
mērīt
futbols
skatāms
žīd
finance
##1,6
109
metalurģijas
mežsaimniecības
tradīcijā
publiskais
tālmetien
Valentīn
Darījum
Pārdaugavā
Friday
uzvedas
silto
cepuri
atsit
Kolumb
rašanās
fantastika
iespaidīgi
pusstunda
veterāni
Uzņēmumi
savienībā
gatavojās
kultur
half
iesaistoties
vecajiem
Ekspozīcij
meliorācijas
žurnāli
Regula
Noslēgumā
University
sabiedrotajiem
cietumsods
apguva
VEC
Kaļ
norobežot
parliament
apgroz
pieņēmuši
intensitāti
guvumu
##irta
ārzemnieki
atlasē
tabletes
runājām
Kolekcij
Vašingtonā
##darīja
leģionāru
working
iedarbību
Lidija
mācīja
Pārbaude
fotogrāfu
izklaidējoš
zirņu
Krastiņš
ieguvumiem
##īcij
turpmākai
##dūmo
intelektuālā
Sedlāček
fotogrāfa
vārtsargi
Skatītāji
Diskusijas
vienojoties
PRI
taksācija
apjomiem
##žel
formātu
iecerējis
Izraēla
koncertzāli
neparasts
spožāk
Fly
apsūdzēj
pārstāvniecību
Mitr
nomāc
##antrop
dinamiku
koordinators
prasījuma
Bezmaksas
pilsētvidē
notikušai
mazbērniem
stādīšana
faktiskā
zināšanai
elpot
aukstuma
augsni
būtiskā
Dati
inteliģence
termināļa
iecienītākā
bezatbildīg
sociālaja
Nepiln
sezonāli
čili
145
atjaunotā
palīdzējuši
grīda
līdzcilvēkiem
tonnām
faktiskaj
kādreizējai
putns
favor
komercdarbības
##muižā
##tehniku
Izvēloties
asociējas
lielveikalā
neizpratnē
manevru
##kredit
mīļāko
Vecākiem
iesakām
##šķīst
pilnsabiedrīb
Rain
home
vienādā
izsludinātajā
Aizvadīt
Bran
slavenību
ģenerālprokuror
pagastiem
annual
##ERI
sekojiet
Sīriju
Dzird
sviedr
pamattiesīb
nepazīst
stūrē
skolēna
apzināj
džez
Druv
Institūt
Iestāde
nopelnījis
Biruta
vējā
šķērsoja
buk
salīdzin
ferma
uzsvaru
ziņojumi
bēgli
būtisko
pazud
ierobežojuma
bērnību
dalībniecēm
Staļina
lēmusi
Ltd
līdzvērtīgi
ieskaites
##pakalpojumi
Strādājot
atturējās
nemainījā
aplūkojama
apakšgrupu
popmūzika
zemessargu
##3,6
Strautiņš
sapņiem
Apvienotā
Valērija
šķērsojot
ķert
Uzvarētājiem
VSIA
riteņbraucēju
anotācijā
samazinājuma
##IJĀ
Vasiļjeva
Izskat
Elektr
būšana
akceptēt
kauju
nenovērtē
ceturtdaļu
jāpārbauda
mainījušies
Rozenberga
pabarot
uzrunājot
##produktu
Krimināllikumā
solījis
Kalniņu
MWh
epidēmija
kukurūza
meistarsacīkstē
##1,7
plīts
izlaide
tromb
1400
apsol
rib
Naukšēnu
vibrācij
varbūtība
Oslo
##coming
jūniju
Anne
nolūku
16.30
ietvaru
zirgiem
trakāk
Ekskursij
sākumskolā
Viļņa
##skolo
svārstā
##centrs
##filtrē
saucamo
Viļa
##blond
izliet
mītnē
slauk
kooperatīvā
mājdzīvnieku
robotu
omulīg
Orb
##programmu
statistisk
izbaudīj
##NĒ
zīd
padeve
##,05
##stāstu
izskanējušo
##2,4
vāciešu
Avoti
fiskālā
LRA
sagatavojis
Inn
vijole
Interese
McDonald
dzintara
inventāru
pārliecinoša
Likteņ
apskats
Bruņoto
brīvlaikā
##velkot
material
pastāvīgo
Brig
kritiķu
jāmēģin
kursiem
##,25
DUS
##ability
proporcij
Hof
pavadoni
rosin
izskanējis
Jaunpiebalgas
Mūkusalas
Olympic
asinsspiedienu
pragmati
ķiršu
triller
vizuālā
Baraks
cargo
INTE
aģenti
kaloriju
defektu
##instru
Pastar
daudzveidīgā
Rugāju
apjomīgā
optimizēt
iedarbin
norādītajā
interaktīvā
Analizējot
Varakļān
cittaut
noziegumos
avota
Nikol
Luīze
Jūlijā
Central
latvisku
##puķe
pamatizglītības
##koriģē
Lēn
Padomē
pieteicies
Dimanta
gudru
startējot
dienasgrāmata
##plast
Rič
LLKC
transformē
rokgrupa
Platon
interpretē
Oktobrī
arhitektonisk
Vācieša
jārad
nomazgāt
##plastisk
pildot
pārbaudīja
Domājam
raudāt
lir
pakāpā
kaitēt
atvērs
kvartāls
Rīdzinieki
puslaiku
##pelē
Nepār
650
konditor
Losandželosā
potenciālā
Porsche
milimetri
neatrodas
krastiem
kompetenta
laikrakst
atšķirties
privātajiem
novākšana
##deklarē
12.30
interesēties
Ceturtā
asistents
svešvalodu
atteikusies
Jēkabsone
saglabājušā
ieradumi
skaidrāk
allow
slimniekiem
plaukti
Nākotnē
elektromobiļ
kamerorķestr
rentgen
1963.
December
sešpadsmit
vēd
izkausē
pārmeklē
pārstrādātāj
##vīst
iedzert
padoma
Mīt
##room
autostāvvietu
izšķirošā
apstiprinās
tīrīšanu
karadarbība
Operācij
Ķekava
sadzīvo
atradusies
Zinātne
atslēdz
specializēta
Penguins
eksperiments
Endziņš
respektīvi
novērojusi
gludi
kristiešu
meklētāja
noziedzīgo
income
Ausekļa
Sociāli
##9,1
nodarbinātību
pēdējai
pildīs
pašaizliedzīg
Līder
##,75
Grigorjeva
paņēmu
pārpiln
Dārziņš
nestartē
etno
dabasgāzi
labsajūta
passenger
pacietību
##1,8
##TIEK
izvēlējos
Vladimiru
porcelāna
rezonansi
Eirokaus
relation
Novērtē
ēdināšana
pārtraukšana
Kauņas
lasījumi
Zeļ
atbildīgajām
konfektes
Sējējs
ceļazīmes
Zilupes
sekmīgāk
saistoša
traģiskā
sapratusi
##vēršanās
sloga
deal
##lender
stereotipi
Piebalga
Smilšu
rezidence
##TOR
iedegt
##glezno
izziņot
Sof
Coca
veiksmīgā
Olimp
izteikumus
uguņošana
gaiteņ
kūts
cietums
uzsākuši
ilgstošu
svinīgo
salauz
galamērķiem
populārākajā
pērtiķ
kvalitatīvs
mīkstā
ballīti
operatoriem
pieaugošo
apkārtne
dzīvojošajiem
abstrakt
lauksaimniecību
skandāli
vīziju
atbraukt
plānošanā
German
fileja
ievārījumu
cauruļ
izlīdzināj
paplašinās
velosipēds
institution
piedalīšanās
viļņu
morāle
šķēršļi
aizskār
apdraudējuma
pieļāvu
##OTI
solījumiem
glezna
Kopvērtējum
egļu
fašist
Noskaidrot
tapšanu
##kir
neguv
mirušā
pārraidīt
dušas
uzspēlēt
##phone
Monika
Tap
apsēd
atsevišķs
nekustamais
zobārstniecīb
pārvadātāju
velosipēdiem
skudr
##veidīgo
Ievēroj
##institucionāl
Prevencija
advokāte
Ēģiptē
nesaņēm
sakapāt
steigā
Zīmol
tviterī
neļaujot
Valstij
arhitekte
automatizēt
disciplīnu
pilnmetrāž
sastrēgumi
Vīriešu
ikkatr
Ētika
iedrošināt
pārtop
##ILS
##fotografē
parazīt
apciemot
izskatot
nominālvērtīb
secinājums
izcelsme
leader
komunistu
Kluba
Glezn
izmantošanā
koplietošana
uzdevumā
Deglava
apbedījum
steril
šausmas
much
##ček
noskaņota
jāpaliek
SOK
Treniņ
##mesties
Pārāk
izdoma
##piezīmē
Aprīlī
vākšanu
Rockets
diētu
vistuvāk
tematiska
mirstība
priekšējo
finālisti
eksperimentēt
negatīvs
atsūtīt
piepildā
variācij
Saņemt
##deļ
garīgā
current
Merc
Meņģel
postījumi
##sign
Kristof
rīkojot
ceļojumiem
##šņā
##nedēļ
taisnību
minimumam
##AKA
entuziastu
vēsturnieks
variantā
šķīdum
Angļu
nedabū
balli
##došanos
normal
aicinājusi
direct
atvēru
Klintoni
tenisā
Izvēlie
program
iedzer
##born
##jušajiem
ainavā
badmintona
jāievieš
uzstādīja
Japānu
specializācija
slēgšana
krāpnieki
restorāniem
Parādnieks
##zīst
vilšanās
satver
Kail
attālums
##REIZ
atdarin
mīļie
iepakojums
zudumu
ierašanos
nominē
plata
regard
minūte
priecājās
komunistiskā
nomākt
asaru
pieredzējis
sadaļu
aizbraukuši
Teātris
komfortu
smadzenēs
pirāti
paredzama
dubultspē
jāizveido
smaguma
##kūr
tribīnes
Komisiju
Indriķ
Rumba
stieni
##činsk
sekmējot
##jol
carrie
jāļauj
Redžep
pārgalv
neseko
Neatkarīgajai
##sēdē
atcerējās
mašīn
##hon
pārstāvniecība
teroristiem
Kinoakadēmija
Kuzņecov
spēcīgo
Individuāl
apšaude
krīzē
Piedalīj
pirmstiesas
nozīmīgākais
Alūksne
klīniskā
Policij
##bāž
Stepan
aplikt
Strazdiņa
draudzīgs
paplašināšanu
rezervāt
Vārdu
karsts
intensīvāk
Inženier
apstāšanās
sadursmi
zagļu
groziņ
izlietojumu
termiņiem
normalizē
peldēšanā
Muļķ
oponent
1938.
Agra
2009
Atklāšana
noskaņojuma
##,01
popularizēšanu
##ington
grūtībās
jāpiebilst
nesavtīg
ratiņkrēsl
Tuvajos
##redītiestāžu
gatve
kantori
kāpnes
ieroči
telefonsarun
##lasīt
fakta
iztikas
veicēju
##polār
tiesnešiem
asoc
paradoks
virspusē
izņēmumi
Lembergu
Iesniegum
slaveni
Zep
pārtraukumā
vienpusēj
Vārda
Izpild
lāpu
Kārkliņa
šķūnī
vērtīgā
minētaja
Dagnija
Atkārto
Saulkrastos
informātikas
vakance
##based
apsaimniekotāja
aizņēmumu
reiss
salonu
Akciju
Iemesls
apsteigt
Īriju
tipu
mirusi
border
Reiņa
rise
vēsu
operdziedātāj
rezervācij
ļaunprātīgu
aizgājusi
nosaucis
uzticēšanos
norādīju
čeku
ievirz
apsaimniekotāji
spārnu
nodēvēt
noderīgs
Apvieno
izskatīšana
Organizatori
kredītiestādē
Norma
ritmā
Test
īrēt
ārpakalpojum
ārstēties
nolemt
##raugās
ALTUM
ideālā
akadēmiskajā
##hān
iedvesma
Ābele
vietni
Balkānu
vilcienā
Mārupē
neapmierinātība
ieceļošana
eirozonā
snigšana
sinhron
Izņem
zīmoli
nepieejam
LASI
krājumā
veidolā
izaicinoš
intrigu
paplašina
favorītu
Jūnijā
alternatīv
diagnost
piedevu
maldinoš
pārkārto
165
Neredz
Kriss
Obligāt
milimetru
reliģisko
notikumos
uzvesties
##hrom
aizsargājamā
rezultatīvāko
balsojot
ielūgum
##ziv
saskait
rūpēm
salons
Mega
čempionvienība
mitrumu
nevēlos
##EE
mājaslapa
ceļotājiem
lietotnē
izteikum
##braukā
sautē
EKO
siles
neapmierināti
Ieskat
dzimušie
kinoteātros
cietoksni
Dienu
##ANA
popularizēšana
tirgošan
jāsaglabā
scenogrāfs
demonstrācija
izglāba
ideālu
stāvvietu
Studio
nospiedumu
pagalam
aizraujošs
sniegšanā
pazuduša
piedāvātajā
kaņep
dzīvojošā
lūgšanu
sagaidot
briesmīgi
sliekšņa
noziedznieku
pirkumiem
Cibla
Auziņa
kanāliem
pārvaldība
dārzkopības
Kivi
Proces
11.30
##zelzceļš
Vask
Voldemārs
rezolūciju
naktsmītn
licence
##craft
##2,3
redakciju
paplašināšanā
grew
Gribētos
ērce
grami
neizvēl
##uzstāda
Redzam
labības
eksakt
kapteini
Bēgļu
horeogrāfe
interpretāciju
saviļņo
dzīvojoša
Ievu
tanki
asistē
Parlaments
pievilcīgu
sprādziena
Daumants
Jumava
marinēt
saspringta
lojāli
jāuzņem
##EF
karsti
pasakā
būtiskākais
Prins
naivi
##plēš
baseina
režijā
Rūpniecības
formulēt
rūpīgāk
##cietība
baņķier
poliklīnika
formulu
dēvēja
East
čeka
balstīti
mūri
izvērš
Aknīstes
Floridas
Baznīcu
kurināmā
##field
##CC
aktuālu
Strēl
SWH
kinoteātri
draudzību
metožu
noslēguši
pārnēsā
centrālai
trīspunkt
sacīju
##elect
kartona
biedējoš
##GE
diskriminācija
gaisotne
Spāniju
dzīvesbiedre
pilsētvides
staba
saliedē
pasniegšana
grantu
atkāpšanos
##pārdošana
Out
ietriecās
pašsajūta
position
Publiska
electricity
##vērojuši
Folk
ietriec
liesmu
Uzņēmumā
fotoaparāt
savstarpēju
onkoloģisko
korespondents
attīstīšanu
apglabā
būtiskākajiem
globālajā
uzlabosies
tomātiem
Lapiņš
sēklām
saiti
Akadēmisk
Novgorod
fakultāti
pārdevējs
izcilības
jahtu
Cross
##2.3.
lēkā
Novembrī
##ārt
LOC
nozīmīgākā
Kazahstānu
Sibīrijā
strūklaka
studējošo
##lieciet
Well
sekmes
Cargo
sekojošā
dāvanā
vēstuļu
aptvert
terminu
infekcija
##zil
Vīrs
aktualitāti
##zemnieku
##INS
Excel
##ENI
limf
Anglija
izcīnījuši
jurista
best
izskatīja
solīts
augums
pakāpties
visplašāk
apstājas
Tiesībsarga
Tomasa
kvadrāt
palātā
1905.
savainot
krāsošana
iztaujā
nosūtījusi
akcents
Rudzīte
ieguvušas
noformējums
PMLP
infrastruktūrā
pašapkalpošanā
neiztikt
kliedē
##facebook
##ONS
dzejnieki
sekojoša
Cesvaine
Fashion
skandāla
1957.
maizīte
##ākamnedēļ
darīsim
koncertmeistar
izglītojamie
ripa
Rostov
skābekli
aizvadījus
likumprojektā
korpuss
teritoriālo
release
aizdomu
lepoj
Design
reklamēt
##9,3
Andžel
##festival
nesapratu
psihologa
Ordo
##HC
ieteicama
organizētāji
kun
Pakaln
Link
Jāatceras
autostāvvietā
VNT
Biežāk
sanāksmi
Izdoti
Ieguv
##bāl
retail
beigties
Kongresa
akadēmisko
iebilda
dueta
sojas
Nekāda
pieņēmumu
signāli
pusaudžiem
interjeru
arhīvu
dienē
##zeļ
pludmale
mītoš
Mērsraga
Staņislavs
subsīdij
atzinums
neaizsargāt
##JAM
##word
meistarīg
1930.
aizdomīgu
Klāvs
ilggadējais
miljardieri
Uzmanīb
vāciešiem
uzticamīb
paradīze
veltījums
taktika
ļaunprātīgi
beiguši
izaugsmē
garšvielu
mirkļa
traumēt
uzlādes
dronu
meklētājs
birokrātija
Guardian
biggest
orķestru
klasifikācija
Advente
retums
prasītāj
Gunita
##saprot
pamatīgs
citreiz
apgabalu
kadastrāl
iegādāti
apturēšana
Tab
##sapņo
Terēze
implement
Sinfonietta
bankrota
##zāļu
pulcējot
Antonio
plakan
Mikus
gleznain
Palameika
izraisot
iekļāva
think
intern
kanon
neaizskar
##ēmija
Štr
raksturojum
brīnišķīgu
neeksistē
smaidot
vientuļa
izplata
atmest
karogi
iemaksāt
parasts
cēloni
oligarhiem
9.30
Meksikā
kontrabandist
stereotipu
asinsrite
kvadr
Īsi
namos
14.30
mierīgs
Nodrošin
ikreiz
ieguvi
Lop
Vasil
Beresņevs
eksperimenta
pianiste
tiesvedību
īsfilma
svaigs
savrup
sitiens
nopelna
ieviesīs
Poga
skaidrību
velosipēdistu
tēliem
kontiem
##liešu
Rātslaukum
nomaksu
izplatās
meitām
rotaļlietu
dīķa
ieskaņo
##zvana
publicitātes
toksisk
biržu
grauj
grūšanā
Bang
Tālr
grāda
amortiz
iebrauk
pusaudži
jāceļ
kontrolieri
##ometrs
apsardze
Džim
Spilgt
pamatbudžeta
rezervju
ģimnāziju
Ķēniņš
Komponist
risinām
nogalinot
obligātajā
Baltcom
noslīdēj
Ziemeļāfrik
dažādība
pamatlīdzekļ
nostiprina
Vaidavas
modernizē
9000
iekrīt
purchase
masveidā
disciplīna
tirdziņu
atmazgāšana
Sāc
atvaļināj
##lieši
nokrita
Skatoties
biezums
šķīrējties
klēpī
ieskats
Zemgus
##metņu
producenti
3500
Čer
skarbi
Poland
portāli
##book
##owned
čeki
cerēja
referente
līdzdarboties
idea
Fred
Brauna
putna
##cēlusi
septītais
##urnāls
lappusē
Klubs
brīdinājums
jāuztur
izstāst
vairumtirdzniec
620
##ējoša
basketbolista
kosmētiku
piesardzība
pediatr
šausmīgi
Rietumvalst
##ERE
Foundation
Gaujienas
RBSSKALS
jāatbilst
kolektīvo
īpašumtiesīb
kratīšanu
##darbojušies
diferencēt
legāli
apglabāt
ģenerāļ
Daini
five
šķēršļiem
populārāka
austrum
bumbiņas
īsfilmu
sociālekonomisk
##baudīju
ēdamkarote
karsto
bezgala
uzskaite
##ART
Klīniskās
kosmosā
publikāciju
ātrumposmi
gadagājuma
termiņos
lielgabal
Sezon
motīvi
##plac
atpazīst
dzeršana
svarcēlāj
1954.
futbolista
pilsdrup
Indrašis
##čevska
Reģistr
Punk
teicami
aizceļo
Depo
Maršrut
Venecuēla
amatierteātri
Līdaka
kļūdījās
lēdija
novietne
jāpalīdz
##0,9
apbalvojums
Atmiņ
pūka
Ieslodzījum
impulsu
Neilgi
handbola
Linderman
Galvenokārt
##strukturizācijas
coll
incidenti
##TL
23.00
##izstrādājumu
grūtu
##aktā
skolnieks
Koalīcija
inovācijām
ERGO
ilūzija
bagāto
terorakta
atnācis
Armanda
karavīrs
prasmīgi
atlikuši
##kavēties
##slavu
aizstāvēja
atbildētāj
Kristīna
padziļin
trīspadsmit
virzītie
##5.1.
Stage
Muceniekos
apmierina
zābaki
tēlā
automātisko
pamanījās
Anže
saglabāšanā
Direktīva
address
iekļuvusi
kalkulator
skandināvu
izpārdot
radīšanā
finālsērijā
virtuālajā
patriotismu
pārsniegs
vētru
jāredz
##pavisam
iedarbīg
akadēmiska
piesaka
daktere
smēj
##ware
ziepes
automātiskā
##zstāžu
##svērusi
Rasma
##rēķina
##bauda
jaunajo
Mikrofona
degustācija
2023.
memoriāla
Protest
LZA
Lielvārde
tērpa
nepaliks
prestižu
sanatorija
resurss
nepareizu
ratificē
medībās
Cenu
marinād
cēsniek
iekrāt
etiķi
LATVIJA
rosība
Anatolijs
likumdošanu
obligātu
diezin
nevalstiskajām
izdzīvošanas
##zak
rīsi
aizturējuši
Advokāt
industry
trešajai
viedtālruņa
attap
pazust
dārgumu
kupon
svari
izcilākaj
stingrā
prior
kakao
1958.
autobūves
Elektrum
prātīgi
pavārs
Kolkas
krūze
pārvietošanos
Pokemon
amatierteātra
līderpozīcijā
nebijis
##amerikā
pārtraukums
sponsorē
Vieglatlētika
bateriju
stacionāro
rajoniem
Vīksna
several
noslīkuš
veikšanā
virmo
bezcerīg
Kazaņa
pajautāt
##skenē
specializētā
konstatējis
maestro
neiedomājam
##skrūvē
abonēt
devītā
Zol
Tin
radošumu
dzēšanas
##MON
Vaikule
follow
krāsaini
Konstantīns
Ķelnes
pigment
prettiesisku
tūrisms
spogulī
dūmvad
sabiedrotie
##skatījies
klusuma
atceroties
iebraukšana
##2,6
Šul
Pārējo
tenisists
uzbrukumos
barjeru
izmitināt
kavēšanās
darbošanos
Metjū
dumj
pupiņas
full
aizbēgt
iemīt
optimizācija
nemēģin
Brīdī
Izraēlā
nevienlīdzība
Bagatski
Kalkūn
Repše
piegāžu
kamīn
ritms
Sarma
ceļotāji
Jubilejas
WADA
olīveļļu
būvinženier
1917.
attiecināms
##grāmatā
pārmanto
Vēstule
ventspilnieku
DDD
Austriju
PRE
iedomājies
komentētāji
##ižņijnovgorodas
krāpšanu
Dzimtsarakst
Economic
trauksmi
great
izaudzis
līdzsvaro
novēroji
nozīmīgāko
Reāl
Digitālā
Komisijā
tempā
##slepkavo
##rank
##,06
received
sazvērestīb
rituāli
bažīj
TAUTA
reaģēšana
##1,2
mēģinājuši
Zahar
##fū
Deutsche
industriālo
pašapziņu
šarmant
emigrē
380
bites
kapela
apsvērumi
diriģentu
ēras
novadi
redzējām
pamatojuma
##meita
apsaimniekotāju
fotoizstāde
makaronu
šķīvja
Belarus
ziņkār
Prese
sarežģītīb
##0,1
Groz
iedalī
palasīt
KPMG
Regulāri
Ginesa
autoostas
##uality
KAR
Porziņģi
grupējumiem
reisa
Veļ
pastiprināsies
Skype
##INI
host
daudznacionāl
ekspertīze
rutīna
darbdienu
##mann
cienast
apņēmību
Šarl
Timma
problēm
etiķete
iekļuvuši
Konkursu
šedevr
kukaiņi
mazpulk
topošie
rezervistu
notāru
formalitā
Pensij
procents
pielīdzināt
doktors
vājāka
pulciņš
Olands
Rozenbergs
niecīga
##play
Niedr
##CĪ
neuzņem
uztraukties
apraksti
Karmelo
Prāgā
atsakot
##respekt
Sigita
##orž
Speciālisti
izsoli
virtuālo
oligarhi
nozīmīgumu
eiropieši
##MENT
dzīvojoš
mammām
korpusu
Ikauniek
izdarot
name
##skij
Brok
iepazīstin
##prof
contract
genocīda
aizkustinoš
Ernst
atvilkt
sātīg
##enfeld
sagrāv
aprunātie
traumē
nošķirt
Februārī
apmaksu
nevajadzēs
kefīr
Taivāna
sivēn
atalgot
##radar
spraiga
nepatiesu
Industries
Ierakst
##ONE
insulta
pionier
klasiskajā
vinju
spoža
diplomātiskā
cietumu
##RN
Izslēgšanas
ūdeņraža
Zvirgzd
nekavē
pavāru
lopkopība
padoms
auksti
nepatīkamā
reliģiju
tehnoloģiski
trokšņa
apturēšanu
pazemināj
Jansona
akcentējot
regulējumā
Pārstāv
##ental
Andrē
atjaunojamo
ekonomisku
##tēlo
Pagāj
gab
Mobilais
iPad
jāapstiprina
pianistu
Komandu
iznācis
sekmīgu
Cietušais
mitra
signāla
tērps
Atrad
##Kr
lopkop
bioloģijas
##rezul
##saukuši
Brāl
direktīvu
Viasat
atturēties
rektora
##Online
izpausmēm
mūk
priekšniece
Kūl
traģēdiju
tatāru
audzināšanu
atlaida
rūt
bandīt
Luksemburgā
Lūznavas
alumīnija
inkubatora
talantīgu
matemātisk
modificēt
Bukarts
palielinājumu
snigs
Balle
Čempionāta
First
morālo
garākā
nomāt
CETA
##turoties
serveri
oil
AHL
brīvībā
šķirties
Vajadzēt
kultivē
Novēlu
sasnieguša
SAP
traka
Senāta
Ķer
brīnišķīgs
konkurētspējīga
Abdul
auss
Volf
neatbilstošu
kravā
reģistrs
rotasliet
##asiņo
telti
Ungāriju
dzimtsarakst
mijiedarbība
sabrukuma
eksāmeni
afiš
ievākt
Koreja
audzināšana
biblio
tīšu
Rasnača
labvēlīgāk
apelsīnu
Serviss
šūnām
konstruē
Liesma
rīkojies
atrunāt
drukātajā
pūķ
apzīmējums
veltes
postoš
Mācības
žurnālistikas
##mierināt
Health
Juventus
RNP
apjomīgu
Murjāņ
paprika
priekšroka
piekritusi
nodevusi
orientēta
labprātīgi
saukļ
VSAA
traģēdijā
dzemdes
ogļu
komisk
spirta
nepārprotam
noguruš
Terēz
deklarēšana
iegādājušies
laboratoriju
videonovērošana
totalitār
ievainojam
automobiļi
Miļ
Vītoliņš
Lakers
##kilometr
13.30
##shanu
autoritāte
##kapj
nelabvēlīgi
rekomendācijā
īsziņas
pamatlicēj
Lazdiņš
pirtī
##custom
##diskutē
##salst
##mekle
Apmeklēj
##3,2
Race
Bratislava
Shopping
Stoltenbergs
[...]
